[PAD]
[UNK]
[CLS]
[SEP]
[MASK]
-
0
1
2
3
4
5
6
7
8
9
A
B
C
D
E
F
G
H
I
J
K
L
M
N
O
P
Q
R
S
T
U
V
W
X
Y
Z
a
b
c
d
e
f
g
h
i
j
k
l
m
n
o
p
q
r
s
t
u
v
w
x
y
z
¡
¢
£
¤
°
´
·
¼
½
¿
À
Á
Æ
Ç
È
É
Ë
Í
Î
Ó
Ô
Ö
×
Ú
ß
à
á
â
ä
å
æ
ç
è
é
ê
ë
ì
í
î
ï
ð
ñ
ò
ó
ô
ö
ø
ù
ú
û
ü
ý
þ
ÿ
ā
č
Đ
đ
ē
ĕ
ę
ě
ğ
ī
Ł
ł
Ō
ō
ő
œ
ř
ş
Š
š
ť
ū
ů
ź
Ż
ż
Ž
ž
ư
ǫ
˚
̀
́
̃
̄
̈
̧
Α
Β
Γ
Λ
Σ
Χ
ά
έ
ί
α
γ
δ
ε
η
θ
ι
κ
λ
μ
ν
ξ
ο
π
ρ
ς
σ
τ
χ
ω
ό
Ϯ
ạ
ả
ấ
ầ
ắ
ế
ề
ể
ỉ
ố
ồ
ớ
ợ
ứ
–
‘
’
‚
“
”
•
…
€
™
⅔
⅛
↔
≈
⎯
─
▶
◀
★
♂
♥
一
不
东
丽
你
做
兰
只
在
宜
广
我
敢
旦
是
未
梦
沙
牛
猪
的
目
看
美
肉
艾
野
麵
ﬁ
ﬂ
##e
##m
##d
##i
##a
##l
##b
##o
##p
##r
##n
##g
##s
##t
##h
##u
##c
##f
##q
##w
##A
##z
##I
##y
##T
##L
##k
##v
##C
##F
##ﬁ
##S
##B
##8
##O
##H
##G
##ç
##x
##W
##E
##N
##j
##K
##2
##V
##ō
##J
##D
##X
##P
##Z
##R
##Y
##á
##0
##1
##ó
##í
##M
##è
##6
##é
##ü
##ù
##9
##ñ
##4
##5
##ë
##U
##ï
##ä
##Q
##3
##7
##ú
##î
##́
##α
##κ
##ι
##æ
##ā
##ê
##â
##ĕ
##ö
##ß
##ł
##È
##à
##ť
##ố
##ﬂ
##ş
##ē
##ū
##ô
##š
##ề
##ế
##ř
##ð
##ż
##ầ
##ρ
##τ
##ε
##ς
##⎯
##ο
##η
##ω
##γ
##̄
##ạ
##ư
##å
##Ô
##ò
##ý
##λ
##σ
##ν
##œ
##ứ
##ί
##´
##̧
##¢
##É
##č
##ồ
##û
##Ó
##ő
##ǫ
##ÿ
##ả
##ę
##ξ
##μ
##δ
##™
##ό
##θ
##°
##ě
##π
##χ
##˚
##̀
##ợ
##̃
##─
##Æ
##ì
##ớ
##ά
##⅛
##ů
##ể
##Ϯ
##έ
##ž
##ź
##ğ
##ø
##ắ
##̈
##ī
##Ë
##ấ
##he
the
##in
##er
##nd
##ou
##re
##ing
##at
##es
##ed
##ar
##or
##on
##ll
of
##en
and
##an
th
to
##is
##it
in
##as
##ow
##om
##le
##gh
##ot
##et
##ld
##ut
##ac
##ay
st
##ad
##ve
##ic
be
##ir
on
##st
you
##se
##al
wh
##ur
##ght
li
The
##id
it
##ith
he
##ver
is
##ke
##am
with
##oo
that
my
##ly
for
##im
##ent
##ill
sh
ha
as
fr
me
##ce
##her
##ain
re
##il
And
##ight
##all
se
we
##ter
##ion
##ch
not
her
his
an
was
##ro
##un
##ess
##ore
de
##th
##ind
##and
from
##ge
whe
##ome
at
bl
sp
##ri
##ap
##um
all
so
##ould
or
ne
##us
##ers
##ong
like
##ack
ch
##ast
##el
##rou
lo
##ant
Th
##est
le
##one
##ard
do
fl
##ak
##ie
##ep
##ust
are
##ra
##ck
##od
by
wor
##own
your
##ul
they
up
this
##ct
##ood
kn
she
##to
but
their
no
##art
##em
##ure
one
out
##pp
##ss
who
un
##ell
##ist
##ace
cl
al
have
Wh
##ol
pl
##av
##ear
##ide
##ine
##ous
br
##ate
##our
##ab
##if
ro
##ry
##are
##ere
##ath
##ame
can
our
what
##ig
sa
gr
##ag
##ook
##ake
In
##ue
##op
there
them
##old
##ass
##ies
man
its
su
thou
when
into
##ich
sw
##out
##ings
##ound
will
po
tr
##nt
us
##au
##ire
ab
con
mo
##ark
##ick
##nder
##ink
##ays
him
He
##hing
##ite
##fe
##urn
fe
##ven
##ft
##hed
ever
sc
But
##orn
##ation
##sel
am
were
where
##ach
ex
It
know
had
com
sm
##ive
##ild
ar
ag
ey
##other
##ime
##ves
##ose
down
go
##rough
if
##wn
hand
##ang
gl
To
sl
gre
now
Whe
wat
light
some
##ile
##ree
back
over
##ther
##os
then
love
##itt
##ip
would
##ity
night
see
##ence
through
##ds
##ade
co
##ice
more
##ull
sk
which
##ish
cr
pr
bre
##ud
##age
##les
tw
could
wind
##pt
##alk
en
bo
day
That
again
##ber
time
long
##ather
how
##ows
##ream
##ness
##led
We
##ise
##ort
too
##ble
every
##self
qu
You
af
Of
look
other
##hes
##ars
##qu
aw
say
##ave
pre
For
##ance
On
did
sun
str
still
im
pe
##less
has
dis
##ved
said
off
##ling
##fore
eyes
way
never
##ving
heart
dark
old
##ans
##round
than
world
##igh
only
ear
life
under
##ount
##ears
##able
They
wr
##ts
fo
My
pro
want
St
ac
##ens
##omet
When
##oth
As
##ets
des
head
##ody
##ittle
about
##ff
##air
What
even
##irst
here
##ory
With
##ious
##mer
te
##ough
##ail
##ors
any
just
after
##iss
##ove
rem
turn
thy
come
think
sn
##ost
##ew
white
##ps
##ect
child
each
tre
She
end
own
##ond
water
##iver
bec
little
##ls
##ons
##ful
dr
black
##ment
per
sil
sle
been
##ward
##ied
let
away
bet
call
So
swe
before
Be
##uck
##per
may
##we
made
##te
thought
##ross
##iz
##ub
car
##ms
##ause
##ouse
##ally
##ting
air
##ted
##ren
face
##red
##pl
God
first
dream
wom
##side
##uch
new
spe
those
There
##ks
##aw
##ions
Or
good
##aves
fall
should
##ord
##ock
make
op
pass
last
must
sou
##ress
dead
##anc
##ary
Ch
em
##ower
these
bir
two
No
somet
men
##ase
##akes
##ery
walk
body
##ated
ke
##oy
##ty
##iv
##ched
This
war
bel
##ign
##ike
app
##ange
##its
shall
nothing
##ung
ve
##gg
things
##aut
wa
##aking
sky
hands
Fr
##ning
##ways
ad
##act
mother
##atter
tell
don
##ng
##ains
earth
red
feel
##az
##bs
part
##row
home
yet
left
##ale
##ield
far
sleep
once
che
##read
might
##be
##og
vo
though
##ins
house
stre
sea
get
##aught
All
mind
open
If
Then
##here
##ple
bu
##get
##imes
sing
fire
##ool
great
cle
years
place
much
while
death
blood
seem
##ank
heav
blue
##als
beg
##thing
cont
hear
An
find
sweet
##iff
pain
How
##app
##ines
stand
cur
thee
##ople
green
right
came
##ween
sound
many
sur
need
another
happ
His
##ph
without
##den
##ats
##ix
work
hum
Not
##ys
##iend
around
##ian
room
nor
##ene
saw
##ating
beaut
ho
well
dri
Where
read
bed
##outh
upon
At
gu
keep
Sh
##ial
##pe
Is
hair
shad
such
morn
father
always
take
##light
fore
does
something
name
small
##ert
friend
Who
high
##oke
rec
##alf
res
##ott
beh
people
rest
rain
bro
hold
##ia
past
wall
##ember
##ature
##ring
el
##ier
##ones
##aps
##eth
gold
##pped
##rave
between
##ching
land
##sh
against
words
##ily
moon
col
dra
##ters
##ush
deep
##umb
From
cre
gir
door
woman
##aces
sec
ple
##ater
eye
##int
thing
##ash
##rie
##ne
hard
being
unt
mar
because
kind
##ict
days
##sc
trees
whose
dist
song
##oud
flo
wood
ste
##ken
##ib
##orm
##ape
cold
run
same
ph
hour
mouth
##xt
##ried
set
##ible
wait
##cl
##ont
Now
sum
ret
flow
##ered
##ope
river
##ots
mus
morning
side
live
half
soul
De
lost
##gs
breath
wo
##ru
Se
play
across
ll
##ying
care
##ened
burn
count
Al
field
##ife
##arn
gone
full
ask
snow
voice
Like
##ense
young
put
##ates
One
##amp
gi
feet
Her
mean
found
remember
bur
tou
bright
##aid
##land
##not
alone
##fect
says
tree
##att
knew
behind
imp
most
##ret
##ering
children
leaves
##llow
fing
##ations
##mb
ser
##ents
inside
##ince
talk
##ches
star
pur
##ared
##af
dro
##irt
##ills
##und
above
word
myself
##ump
went
##ult
mon
##ither
art
By
boy
##oc
give
hor
##where
near
Some
##iet
##hen
comp
soft
glass
##ames
##asure
slow
until
free
mom
grass
heard
##oes
mid
round
##tern
##awn
sub
book
die
cat
wild
##ical
##ute
##uff
##selves
window
cry
##lf
fear
why
enough
ter
ground
win
##iness
god
comm
##ished
got
##ening
exp
year
##up
very
seen
mount
##ug
Let
three
rock
list
grow
##ron
vis
##arm
##ides
real
dust
met
##ient
leave
##oon
Sp
along
Bl
##ze
Nor
Re
##day
toward
among
ev
ref
Which
##ues
cannot
##way
going
fin
belie
fre
empt
ind
##ual
bar
joy
##man
##most
##uth
mem
##els
int
both
##illed
##ips
cour
##ellow
inv
##vers
##elt
cut
city
inst
##bed
summer
##ek
itself
less
start
road
speak
skin
##so
##ries
tong
fam
hel
##uc
##alm
whole
try
mine
##irc
##ction
spir
lau
everything
stars
else
##alt
comes
arm
clear
##sp
##cept
##ric
##ined
##eneath
diff
poem
lay
##br
inf
took
ed
##ane
next
pray
fair
##ged
##iful
##ept
Ar
##eds
##ipp
best
rep
imag
mir
step
acc
##gether
##der
self
thir
id
thr
arms
min
stone
stri
att
Im
##ym
Yet
kiss
moment
line
sand
pres
human
music
corn
ele
break
lie
##esh
bell
##ason
dec
##And
pers
##ude
return
flowers
##yond
girl
form
##aked
clos
##ror
born
street
##lic
##very
told
par
makes
ob
##rap
##oun
show
##oss
done
tri
er
##the
##enc
##iles
inter
shadow
wonder
learn
forg
##sw
living
cross
true
##oof
foot
Heav
Un
sad
sign
##ards
called
sat
fa
watch
##aint
hung
together
Our
trans
birds
circ
Br
##ants
fly
##ned
cor
Oh
##ift
close
whom
##oney
bit
##ures
stood
##ilt
##rought
jo
heaven
ris
few
disc
##ject
warm
power
rose
low
sim
silence
##oom
rel
conf
##raw
someone
pat
##ister
##orrow
cent
##ised
Here
##aughter
Le
Ne
pull
soon
Your
##aper
beneath
yellow
##aving
late
better
turned
##ouds
##ah
stay
bird
stop
dreams
hope
broken
Af
##ner
lift
##io
empty
##cc
##ired
beautiful
big
wings
lips
sch
smell
women
gard
##ousand
Why
poet
act
sight
looking
##head
thro
##ition
others
##ger
four
##dden
##aster
flesh
##use
##aring
ap
hot
bus
squ
knows
May
eat
almost
move
town
##oose
##ils
bow
Their
also
spring
mag
##ored
##angu
fell
touch
fur
##iled
lim
space
dou
till
held
ass
bab
##of
##rief
felt
tra
##ained
roll
winter
inc
follow
himself
fle
##uit
son
begin
##ists
quiet
breast
##pr
hur
##ote
thousand
drink
underst
##dle
sit
##tend
##athe
didn
floor
mark
pol
sure
##aken
beauty
gen
answ
beyond
sol
Love
within
kne
oft
sy
##bb
help
tongue
since
dog
dress
##ices
##ison
##unk
##aced
blind
##apt
loved
fingers
clouds
bes
grand
mer
died
gave
tin
used
wanted
Do
hang
##haps
sudden
coming
unc
darkness
##ize
##ges
Cl
matter
##iding
cloud
19
lad
##ern
themselves
Tr
times
perfect
Me
country
##que
thus
lives
laugh
ru
tem
##ids
bring
grave
sense
langu
whis
##ives
gh
sent
brother
Its
ble
goes
waiting
table
coll
bare
bod
ra
##iling
tears
differ
##rew
dry
##ience
change
poss
ill
eas
char
ye
reg
Was
##une
silver
Fl
##ages
mist
Man
story
Every
wit
dep
poor
##body
crow
quick
strange
##ities
##meric
##ories
strong
memory
pick
meet
##bo
mel
While
div
thick
spirit
##ster
brown
Even
desire
gent
##ask
##acks
Americ
ent
cons
##ready
##The
##iting
##aste
gra
##rist
dear
cover
##gth
silent
looked
friends
ice
##over
draw
flower
wound
won
##res
forth
rise
##gr
use
chang
garden
##iew
second
stream
##vel
ange
##ular
wife
wrong
##ses
Somet
bad
pra
##ining
forget
build
miss
faces
supp
##ertain
wide
##unt
happy
##arp
##let
pri
gray
Tw
##itting
lar
Will
age
evening
wish
peace
hours
cast
##ought
ghost
bones
##fl
##ony
##ments
mot
##ax
ins
ce
really
neck
truth
fields
believe
##ork
anything
##ray
##nds
smo
##inc
These
sho
##ured
bott
fish
kept
six
##amed
shore
become
mil
person
ball
path
thin
Am
paper
wet
looks
##ann
smoke
outside
seems
abs
clean
fut
dev
##ails
##oll
##ns
spl
suff
New
##ked
##atch
lead
Ab
Though
sometimes
dawn
hath
prom
##king
color
und
heavy
imm
##wh
lit
##ugg
bodies
del
##airs
course
##reat
Jo
di
mur
##ey
heat
anim
already
box
brought
##tered
leaf
thoughts
later
none
##kes
understand
wand
write
After
Are
plan
Out
gro
bear
horse
dim
##omes
clim
oce
walls
##ative
##oms
##apped
Pl
lies
expl
##enty
legs
##hood
seemed
wing
##ized
##ams
waves
quest
yes
##under
##owing
front
known
longer
shadows
##oop
ring
birth
pie
clot
Christ
ten
##arent
pleasure
Bec
##aze
##by
##well
anc
golden
Lord
##ades
##anger
falling
hill
hus
pale
##tering
Sc
fast
##ead
##atever
Gr
stra
##umber
##ited
smile
school
hon
##udd
Ear
##gin
##ming
kill
below
##cess
teeth
hist
cra
having
press
thinking
beside
mis
windows
fill
Just
Thou
##me
sto
##ics
Can
making
ago
future
fig
hid
bound
##aim
shape
point
ones
##acked
##ully
secret
##ased
danc
five
##pping
names
unf
top
lived
law
language
youth
asked
given
dance
ang
rad
tow
cho
Each
Per
scr
##ighb
Mar
##cked
##icks
desp
##zz
##idge
pure
grace
##amb
Thy
alive
Ad
edge
view
##hy
II
spread
##ief
aftern
takes
hills
##nding
shut
began
iron
##ours
dying
ver
##ider
##ention
roof
##ipped
hearts
##str
def
##cy
hell
lab
##ler
##arr
##itc
brain
train
arri
neighb
##eless
maybe
doub
different
##rop
heads
hund
##ny
weep
##ortal
##iol
delight
cou
##used
fail
baby
dest
forest
##ales
##tle
contin
pen
##gn
lines
##uring
mountain
certain
##ald
short
fruit
scar
doth
surf
Eng
##roud
nature
##ced
stud
loud
Through
least
##otten
fact
mad
lights
disapp
burning
ocean
sick
Till
##urch
milk
##ths
often
Because
van
bless
turns
Up
singing
har
worth
faith
##ually
moving
walked
Look
trou
dire
##urs
naked
obs
##aped
grew
apart
Come
##asp
##00
ext
carry
grief
pict
wake
##attle
fat
pet
##ium
##ob
##leep
Whose
saying
##ands
answer
##itude
##ares
fine
wear
##ires
##ograp
##ever
early
single
caught
Po
fun
money
streets
sac
wine
##apes
straight
##ouses
Ind
weight
whisper
##ging
storm
##ding
hall
##cks
dont
Ex
king
sister
tall
##like
##omp
standing
bone
reach
fight
lot
##ocks
slowly
##mon
ide
yourself
Death
Don
ran
vain
##ites
beat
##ume
sold
conc
state
drift
trying
fold
trave
##lect
meant
##ces
boys
walking
gener
afternoon
King
Wor
perhaps
lean
forever
mountains
da
pal
##itch
means
bloom
##cho
ears
##owed
bull
##vent
girls
cool
rich
shade
##reen
rub
shr
##ushed
gather
rust
shell
woods
lone
wis
Did
##atur
##scape
Earth
equ
food
large
Ah
hop
tur
flame
const
fresh
gar
##uous
##fully
blank
falls
tiny
filled
pink
taken
scream
history
Yes
##pect
##ints
##uel
##night
Into
Only
adm
cell
daughter
phot
corner
bag
park
##zen
##ky
##alth
##amm
##aming
Con
##ads
##ury
Once
wants
##yr
ant
spr
##raid
mirror
salt
learned
##uge
##osed
loves
Still
fil
quite
tender
stro
##dom
##gy
##itten
aut
sigh
##Th
gun
##itchen
ban
mod
##co
##ises
family
rising
store
praise
hundred
##ism
winds
prop
Before
Pr
##fort
##kn
##attered
kitchen
##de
plain
cand
taste
ways
swim
sin
nights
bread
feeling
hat
watching
##ech
##for
##ented
reason
##ific
glad
etern
hate
mill
tried
##ded
weather
stret
passed
Over
sharp
Par
det
##ipe
throat
ancient
egg
hide
pot
Those
Pe
today
flight
feather
crown
Nothing
gentle
shot
##ili
books
calm
fal
##arch
##ident
everyone
distance
Gl
##sy
##eding
turning
chest
Joh
##bit
##ird
##astic
post
od
sav
clothes
watched
Well
wave
##atic
##ility
##ement
drop
listen
Ag
glory
Under
stones
terri
eight
sink
##li
##aded
comple
##oned
##ode
Time
flat
eng
occ
viol
reac
plant
Such
waters
##ances
frag
ma
mess
##arrow
doesn
catch
couldn
houses
tight
thine
please
running
gle
hast
prec
husb
##lish
##ho
bloss
##yp
suddenly
mach
##ex
##uct
whatever
seas
##fee
middle
nest
##unch
stands
sounds
Sometimes
##aph
##ably
##icked
except
pin
##ians
herself
##room
flood
##oles
##eks
page
wre
##bl
##ital
steps
boat
pret
voices
Have
fix
lake
por
moved
somewhere
len
ur
##iers
##ided
stren
##ools
force
shoes
fro
grown
##osp
common
##umn
question
##set
stick
save
enter
closed
En
##zy
doubt
##dy
##utes
spot
##olog
broke
finger
Had
sens
sorrow
##men
exist
image
cup
med
##yn
knowing
appear
present
led
sal
##oming
twenty
purple
knees
shout
leg
expect
rev
rece
weak
spoke
##anches
poetry
More
bree
loose
stir
blow
gives
meaning
oh
proud
##ator
church
spec
que
##ffee
##ye
##ney
mud
order
Heavn
either
##erv
holding
din
##aled
shame
passion
holy
drive
pill
##ady
##ading
ourselves
appro
tor
inn
cond
Go
mour
##nded
ere
wise
##ashed
coffee
drown
##ancy
##gged
pow
##iant
note
prayer
cant
laid
pay
wed
taking
##irm
neither
passing
Bet
##ina
##ision
gods
##ases
##iced
loss
prof
distant
poems
##par
##ishing
isn
##ament
ord
swall
souls
opp
spo
##rous
safe
port
##with
##ination
tom
##aling
desert
##atures
##ences
dus
##na
##rent
sees
Two
dirt
mass
vill
seek
##my
measure
chair
##ctor
dam
la
##ums
##ushing
univer
hole
imagine
Pro
tear
sex
##ledge
Heaven
hidden
John
pub
lover
Sl
Were
fool
##oved
##ution
root
pul
##sing
##che
##omb
dew
adv
##rupt
sitting
ash
See
bitter
fit
##how
rocks
forgotten
cap
harm
places
trust
finally
Hell
av
bent
den
##ral
##form
instead
Night
dogs
Shall
Black
dull
branches
anyone
climb
##ped
##inted
fif
ir
rag
##aks
sleeping
Father
wasn
dem
writing
##rom
##eness
seven
pock
ca
ship
doors
grey
motion
stopped
map
opened
ready
angels
strength
number
sang
##ton
##aws
serv
Em
Would
rather
simple
Sw
cause
thread
wheel
sweat
burst
El
hig
thunder
island
week
lovely
flag
onto
pride
husband
Than
leaving
pleas
Sm
rid
ut
##gar
##acing
surface
##ior
##cle
prot
news
keeps
America
Light
everywhere
add
talking
taught
asleep
endless
became
Qu
vall
speech
built
smooth
clock
songs
yard
##ught
##any
season
class
comfort
prison
vision
fav
##aff
##ued
##vy
Mother
slight
sunlight
elect
##ims
horiz
sor
throw
fort
seed
lose
unb
swell
Sun
bath
cam
parent
##orious
shirt
delic
spark
Thus
flies
##udge
surv
##ierce
tired
##oul
loc
Ph
dwell
##come
##acher
##aining
unto
##ables
bank
ride
shine
##ument
moves
cried
mix
##now
length
hun
var
##inging
##though
chance
object
coun
maid
oil
sort
##uss
wrote
easy
pine
##alls
##ests
##ops
guess
buried
Again
buck
dread
fate
ign
##con
sail
emb
holds
growing
Old
ge
master
west
##yl
##ords
palm
##anes
##uts
##ama
doll
lying
pear
torn
##fer
##usion
grows
shoulder
##ipping
beginning
doing
diss
lonely
honey
lovers
works
butter
##aged
feed
getting
tun
tide
wel
afraid
band
vast
##cent
meat
temp
neighbor
gets
##eared
beast
nose
##ately
##inking
midnight
Cr
bal
dig
race
##onight
##ems
uns
unkn
crack
fallen
freed
English
picture
##eps
painted
##bles
orange
exact
tremb
shoulders
cries
##wood
paint
repl
##cri
myst
##ores
##uses
compl
American
pretty
horn
luck
##omed
claim
reading
Maybe
piece
gall
stuff
sever
cheek
drawn
bark
faint
##but
##ashing
noise
##apping
##iliar
Life
Rem
tea
calls
Never
Down
##het
notes
##azed
priv
idea
bra
lust
oer
##roy
crowd
angel
Mr
##key
letters
Nature
ow
##anch
forward
spin
spent
carried
jour
row
##jo
##irl
pract
##ograph
Car
mere
##erm
desce
Id
rage
virt
##erve
##lly
##acy
wash
##rench
parts
case
capt
gaze
##empt
twist
##ply
##II
shed
ends
center
##athered
Ye
huge
numb
tail
##eed
lil
eyed
##board
Des
Tell
craw
game
miles
sits
##med
##vd
##inary
Ange
hunger
changed
Sund
##iter
##ayed
requ
knife
happened
figure
breeze
dusk
Long
fol
##ived
##pers
##To
beach
frame
hurt
hors
##wise
##isible
forms
roots
arch
hollow
pulled
TH
mead
letter
broad
magic
cars
killed
##ii
##ising
roses
##teen
belly
bottom
mut
waste
strang
Str
walks
Swe
bill
skies
partic
breathing
toss
plastic
surpr
started
animal
sus
##ogn
flying
limbs
lady
cig
##reet
whether
##ified
glit
north
pity
##inct
seeing
cruel
tele
slept
steel
false
##bes
##rest
##ooks
exc
written
feels
curt
needs
colors
bas
##lo
##line
##oot
##tes
consc
circle
collect
Tis
reve
##ulous
##umbling
animals
Ill
narrow
pun
shining
sole
purp
laughter
mat
repe
unw
skull
quar
becomes
unknown
##eral
##ently
bridge
remain
##ship
cab
lawn
##hold
swift
exh
entire
danger
val
##ole
##ci
##asy
send
drag
World
frozen
pop
##cher
truck
awake
prod
Upon
##atural
eag
##rel
##isc
frost
block
brow
scene
glow
calling
begins
express
cow
gate
seat
##aret
aff
behold
sour
vol
##more
##aying
noon
touched
murm
vict
worn
coat
fog
metal
Good
ease
lap
belong
buy
playing
listening
##mother
##uly
share
##umin
Com
fed
##ooked
##ounds
breathe
mortal
##antic
##iction
possess
Ser
rot
flash
aband
exper
autumn
horizon
cott
hit
sings
separ
drunk
divine
##ashes
mothers
evil
magn
sacred
##oured
##acle
##azing
burned
double
hanging
Perhaps
terrible
innoc
gift
##rows
##gu
##irgin
happen
host
pa
##rage
worse
apple
tells
Ke
Unt
York
jump
##ract
##uce
stat
stories
##reek
working
##ruct
third
Day
##rant
spell
shel
Take
hed
mor
##ec
##ley
##adise
yours
knowledge
lightning
##iously
childhood
Gods
Ho
rare
##gan
##joy
Char
possible
covered
Something
patter
whist
scorn
played
public
Fe
pour
rh
##eter
lifted
dancing
rough
##In
##oos
decl
mov
invisible
parents
Har
weary
##rod
##roll
##rif
##ifts
##ucked
guard
mouths
infin
despair
brief
embr
business
eternal
est
emer
ju
pig
prep
Sunday
##ping
##eling
clay
##ague
##icken
fathers
resp
echo
kids
##een
##hest
rooms
final
Que
Too
##enn
lip
rele
White
months
visit
raised
depart
complete
universe
bold
ep
net
rav
##gl
##isters
##oman
rever
scent
silk
##wards
battle
je
screen
cryst
familiar
village
Ive
Son
cher
##bled
##rid
##iny
##irty
recogn
Great
Since
Turn
ast
fount
ly
pan
strugg
horses
pit
##iving
##vest
thigh
disappear
Him
cal
ham
ori
##mn
##born
##right
##illy
##inds
cost
sought
presence
direct
##That
lam
##aust
thirst
design
mighty
dissol
Lo
cro
hy
##ait
##kin
##ached
asks
blown
##inks
purs
rises
simply
laughing
feathers
First
Jes
Men
bay
dies
pack
tick
##rors
bee
knock
teach
thinks
reflect
machine
valley
High
Ple
Sil
bord
fence
gas
rab
rib
##inting
##urb
##ille
bliss
##gging
flew
pu
pool
wid
##house
sell
##terday
##ules
enc
wooden
terror
nur
named
##ench
height
##illing
charm
##eping
##ulf
conv
comb
sunset
hungry
Bel
tim
wore
wire
##pet
mans
worlds
south
drops
transl
freedom
eating
##vet
ann
smiles
string
followed
wander
et
fierce
oak
##iest
##lets
stare
bend
cliff
gloom
surround
recall
Among
Dr
tang
##mers
##athed
##ically
lif
fled
brings
wouldn
enem
runs
woe
tongues
bells
Far
brave
card
cities
test
##irts
wearing
deer
soil
leap
##aker
disp
prov
Street
remains
speed
##azz
opening
floating
minutes
ghosts
promise
mult
##end
##iot
##ius
##go
##inet
straw
phone
obl
shoot
Ro
fame
nod
woke
##ration
##ux
##vern
happiness
Miss
furn
ling
##aches
##umble
##umps
conce
##izz
hardly
crying
drew
eff
sons
##iber
##rees
ours
##seless
thank
Could
bul
dumb
jack
##orous
stiff
hero
##umes
ahead
pair
##ma
blur
##eled
##anted
moonlight
grandmother
building
split
ren
yield
shake
flick
Should
minute
daily
THE
nice
##Wh
bees
choose
stranger
key
##ival
forehead
bowl
III
Ge
##mas
##aul
##aries
##isp
incl
lear
glim
colored
rivers
subject
job
witness
Gu
esc
nation
vac
##mber
##cer
##val
blast
glo
speaking
obsc
lack
##ghed
##iring
##rol
##umph
##aved
arg
didnt
dropped
towards
raise
Sweet
gest
tis
##asing
sple
flut
super
giving
month
breasts
About
Until
escape
firm
mild
match
##ik
##Of
ate
branch
proble
telling
breaks
forgot
Has
mas
##oe
station
poison
track
trail
##ee
##uish
##orge
##apers
suit
Without
##while
higher
cigaret
Red
##oring
unse
##anged
landscape
tower
City
French
fem
##pper
brush
breaking
drinking
exactly
dare
lamp
##pent
##ground
stuck
grain
able
diffic
century
angry
base
bask
cu
lord
##sect
suck
struck
offer
import
spirits
hes
##ige
thorn
shaped
somehow
sett
discover
sentence
choice
dinner
Mon
Tod
natural
##walk
##aching
##ilight
##ify
snake
painting
Spir
absence
constant
photograph
favor
Col
camp
##ae
##ER
stalk
search
##arts
sword
Sea
Bar
War
##aning
tooth
hem
sheep
##arsh
Mo
fash
tonight
##ule
##work
##orms
##iment
blade
poets
descri
Beaut
dreaming
check
command
roads
square
18
Little
gut
gay
vers
##ien
##bow
##ball
##xic
##rets
##ivers
##ibly
drove
radio
pocket
Ac
Bre
hosp
lower
wond
##fast
##isf
##itary
unre
glorious
pretend
record
North
dressed
Sat
jew
##resh
##idence
neg
loving
cock
Jesus
Dear
bough
east
lung
##zing
stairs
##riage
##ushes
amid
accept
content
eggs
Last
Mary
barn
reb
deb
foam
court
thirty
pieces
sque
##ners
##nect
##father
##yard
shapes
orch
##olate
##igg
smiling
##ugust
Everything
purpose
bore
##pse
##rac
##fall
##itive
##ethe
##ality
liqu
nobody
##olf
nowhere
enjoy
wanting
steep
##bbing
weeping
numbers
East
pil
##port
##owers
chain
succ
prob
current
nearly
event
Between
haw
ashes
doctor
eyel
marble
confess
further
immortal
trouble
Cal
South
dirty
sides
size
##iance
dism
##ressed
minds
memories
##ossible
aud
bought
fac
tent
waking
##ana
##asion
seeds
sake
therefore
trick
amb
##itted
fires
Another
##ency
flee
electric
trembling
Today
Other
fer
##aur
##llen
weeds
##oph
Art
signs
million
fet
rail
##amber
plate
imper
proper
quickly
Jew
aim
ink
flames
##agg
backs
##udes
prove
text
syst
Indian
damp
gain
grie
mood
rings
##ato
tomb
lock
clo
twilight
affect
steam
bottle
rhym
Give
##pher
##cing
thumb
##ishes
##amond
##road
##umed
necess
##rab
although
fond
opens
staring
destroy
porch
protect
Che
gri
hal
mute
mask
rush
tub
##ese
sheets
exam
board
wax
foreign
utter
journey
cop
holes
##zed
##kind
##itation
##uries
ships
blows
pos
boots
perf
happens
crossed
knee
##hyth
scarce
Apr
Mad
West
wealth
##asting
##rying
sugar
moss
desk
veins
planet
mystery
Del
es
##met
shit
fright
Three
pond
needed
giant
indeed
patient
bos
tune
##IN
sty
shook
##ols
older
kissed
missing
pleasant
##lier
locked
leather
appears
brothers
equal
maj
sorry
Spe
cream
kings
push
ske
##wor
stage
washed
##elve
float
##upid
Blue
intell
interest
busy
mercy
wisdom
bub
fart
fuck
gn
thats
displ
dreamed
Child
waits
##retched
famous
soldiers
oppos
fifty
April
Bo
fan
non
##gress
beard
party
thrown
rolled
revol
strangers
conscious
Sir
Te
tale
##can
##inter
weeks
rob
scri
slip
company
rolling
suffering
August
Cre
Does
fist
kid
rhyth
##ias
##pire
##otion
stock
##imate
##using
instant
barely
deliver
counter
fashion
Back
Make
paid
##hel
threw
##emb
unm
wrapped
muse
nine
anger
flu
fox
heavens
married
Someone
triumph
easily
travel
Queen
dad
tar
vine
##But
beer
trace
##anced
finds
commun
images
attention
Remember
splend
lon
##hip
##ulate
bride
##ivil
cheer
polit
ruin
tomorrow
abandoned
Co
cas
mort
rope
conqu
##icking
farm
creatures
returned
surely
changing
crystal
bid
##eous
##èd
##oops
shows
aside
blame
sheet
arrive
People
queen
difficult
Ger
List
Say
ax
fears
hym
sym
tip
##hered
stub
##oses
awful
remind
apples
##umbled
##neath
remembered
softly
strike
pressed
shells
delicate
Against
Dark
jud
##bor
##uits
##omin
##urd
shock
notice
soot
bru
cracked
##ension
ended
bloody
worked
##iety
Gold
rip
##bing
insp
##lebr
spect
mock
twice
trem
odd
mal
native
shop
haun
##aints
##anding
placed
treasure
infl
solid
changes
June
Ma
bars
moth
##mit
##oid
##gen
##era
##ators
##ara
threat
roar
##anging
closer
Hel
ah
during
gathered
inh
liber
worst
cloth
##olute
exce
extend
princ
office
tend
teacher
visible
gently
suffer
Above
England
hopes
blossoms
cave
ec
fills
##lit
##nes
##ffect
##itions
##omen
##acious
##aly
##top
trump
convers
coast
steady
picked
Tom
main
tit
##eys
##fts
drank
Soon
cheeks
stayed
murder
Grand
stroke
blossom
cotton
infinite
Must
River
cy
pier
wont
##pes
wheels
alt
Whatever
creature
diamond
blessed
mourn
meadow
App
IV
Mount
cult
gown
##fly
myster
shalt
sear
attend
clut
greet
spend
sleeps
ident
direction
private
solemn
Bab
lets
rode
##onder
rejo
level
asking
satisf
Christmas
petals
palms
fixed
Dad
Sn
fancy
gates
lin
##cul
beating
##that
Inst
##ffic
beds
##riend
edges
wandering
virtue
problem
hospital
Made
Pre
Walk
Water
hence
vio
##ique
##yal
##erness
whit
Outside
yesterday
reached
Eve
Kn
tap
inner
##anting
fever
twelve
longing
process
##attering
laughed
understood
celebr
origin
yell
##aun
##lin
##rit
##OR
##With
##ero
tot
sport
une
lands
burns
laws
welcome
Rome
dar
fare
tied
##dess
shim
frail
##olt
theres
##aud
feast
##aughters
begun
Trans
Green
Je
coo
pause
rout
##iven
##bid
##anish
health
wept
log
brill
sway
points
prim
Spring
sadness
join
der
mention
pages
##wing
##rete
stom
Think
arr
anymore
greater
resist
temper
labor
bosom
faced
rum
tort
##sed
##from
whir
hearing
guide
impossible
believed
stops
streams
engine
hammer
Ven
vel
##just
##erves
forty
spit
chim
prefer
starts
difference
consider
stretch
Both
ber
due
##lock
##hind
##ros
organ
swept
scrap
tread
sidewalk
serve
rule
graves
honour
verse
sighs
##ology
tunn
Beneath
bomb
##oons
##cial
hears
unp
##ifting
grim
sweep
passes
##appy
curse
Deep
##ruction
joys
##uthor
hangs
Mean
ceiling
dut
ol
##eg
##reg
##sters
weed
dece
spray
chin
chairs
Beyond
solitude
Adam
pictures
Wind
effect
rapt
virgin
wars
##lings
##cr
##estern
##ural
##ilos
deck
defe
impl
anyway
deeper
kisses
arrived
study
unseen
Call
##ett
##irds
noble
grin
harvest
candle
swallow
surprise
dang
lat
##aver
##hem
##isd
reign
##ulation
knot
##ailed
slee
needle
phr
touching
moments
speaks
market
crazy
Pres
pipe
raw
##rance
##vious
stair
lion
liked
deg
chill
chicken
shepher
##ivering
keeping
dusty
incre
police
wedding
particular
Most
cook
lace
pian
rows
ripp
##min
##bon
##time
##reds
##ora
##icy
beams
##unning
##lessly
##ission
marriage
##lands
corners
lifts
separate
Eur
Op
action
wer
##ael
##reed
insect
##uments
##ieve
drum
Any
##inese
##phone
waited
subst
uncle
pulse
various
Cle
bush
joke
pile
riding
##llows
allow
tracks
shades
traffic
movie
Ed
Etern
ech
pige
##As
##ander
flour
suns
wrist
##ancing
driving
phant
grandfather
charac
honor
owl
probably
Fair
Mer
Pass
bind
pad
sed
##foot
youre
##alous
wheat
connect
prey
##flies
failed
stretched
service
learning
female
system
lonel
Count
San
ratt
##ai
##water
habit
##hers
grate
moan
underneath
perform
burden
serious
following
paths
##what
questions
soldier
folded
fortune
several
stomach
hood
##gly
##yes
##orse
toil
##ado
shower
flung
unh
willing
entered
Ste
##ensive
##ibility
mostly
metaph
eaten
grav
wounded
receive
embrace
thighs
Bu
Muse
eld
fought
jar
pip
##oint
##atched
sticks
shy
brid
brick
smiled
slide
skill
##ishment
sung
writ
betray
newsp
##ivid
buzz
Alas
saved
important
Spirit
Ev
Lond
daughters
pump
rat
wrought
##ev
##reme
##asm
stupid
##cend
##arks
soup
dried
compass
instr
account
Paris
occasion
local
Ap
Air
La
dw
fant
judge
rig
sisters
ven
##bre
##ino
##erved
beam
ank
spare
chains
chamber
##quence
desper
beloved
nurse
Cor
Sal
Sch
hay
mart
sets
##zes
##you
##icing
shift
##aine
blowing
##rib
burnt
glasses
heavenly
Afric
buildings
ancest
carrying
Poet
message
seasons
border
Bes
Half
Wr
fi
fade
tast
inward
##ety
##ette
wears
##esty
upst
##ously
##ouring
scen
##bert
carved
Chinese
void
Imag
Many
wounds
despite
pillow
Mid
cous
hol
pound
til
##uary
##anks
##otic
##vey
web
sphere
chief
Thr
butt
glance
##lessness
Within
keys
hover
##claim
puts
warmth
hotel
blew
mistake
sacrif
springs
Paradise
ordinary
ignor
exhaust
rhythm
Cons
Cont
mail
nails
rice
tax
##acles
stain
heap
spake
worry
##empl
##agged
scattered
##berry
becoming
regret
violence
merely
Lady
Rep
Su
cust
dun
duck
##lers
##cus
##fish
##atoes
stem
bron
daylight
driven
fault
draws
cease
##ollen
whispering
guns
##cially
experience
lunch
rude
vap
slave
enorm
boats
bedroom
compan
towers
couple
apartment
banks
enemy
lungs
Ant
Later
bat
cit
ox
oper
pines
ripe
waving
##For
stol
plane
pointed
headed
appe
contain
quietly
explain
neighbors
swimming
##liest
slightly
velvet
loneliness
London
Dream
cage
ess
##long
##ugs
##field
##ouch
stoop
iss
##thy
##agon
sugg
trunk
crime
humming
phys
cares
##uced
mirrors
centuries
marks
courage
leaning
drowned
fountain
Min
Sure
obe
typ
ves
shrie
##elf
##angs
otherwise
##ression
##iffer
horror
throne
##bye
bullet
reaching
existence
special
objects
source
liquid
ecst
cart
civil
fab
mater
penc
wool
##iate
##parent
##LL
##rect
storms
##semb
spider
dost
doct
upward
plum
##aths
swing
lightly
##ulls
proof
##pecially
musc
relief
merry
screaming
eternity
curtain
Holy
eyelids
style
Comp
Ir
Res
grou
mic
male
tour
##ov
##AR
Inside
swear
trade
smart
guy
setting
finished
emptiness
circum
winged
unfold
planted
twisted
glittering
Greek
Sum
foul
##bling
##orus
##ential
shaking
dove
plot
##arest
grad
grasp
moist
govern
crad
boot
aware
strings
waist
control
finding
curious
Dead
accord
attempt
##box
insist
gathering
bags
pattern
favorite
echoes
20
bon
bite
gau
ric
sust
vig
##ials
##back
##bird
##ameless
forced
shines
hers
##aping
worm
##ogs
mornings
secrets
Spanish
eleph
relig
gardens
bleeding
funeral
Europe
dre
ugly
vib
##uke
##ws
bears
frown
##ights
swollen
##ailing
Behind
carefully
regard
personal
figures
Jan
date
ninet
ped
ray
rules
##held
##arse
##oning
bew
##stone
##urg
##enth
deeds
spine
##rive
flock
brass
scor
somebody
##mering
anywhere
flowing
talked
army
prayers
imagined
circles
devil
killing
extra
spoken
basket
Get
dish
homes
vent
##lex
lily
limb
haven
##ults
plants
glist
prime
wrink
passage
keen
veil
cheap
needles
resem
Always
wilderness
##spect
imagination
##ymph
ruined
foolish
10
Sim
bits
dise
pave
sap
sire
wilt
inch
heels
former
unless
##ago
ener
##action
march
returning
syll
tempt
supposed
shoe
whispered
Fire
Hard
gifts
hiding
##bage
##sal
##ker
##erable
##lled
shield
spite
##ested
Whom
pluck
##ational
coff
offic
thanks
##hens
infant
breakfast
forgive
patch
film
Angel
farther
Four
Rock
Sleep
pants
tone
##ders
##gment
asp
sel
brood
ache
Being
careful
decay
pulling
rolls
drifting
general
blanket
approach
neighborhood
entirely
shelter
example
opposite
enormous
Cam
Pat
fellow
faded
##lection
##ache
myth
##alled
truly
arrow
##quit
carries
##oys
feelings
contr
accident
fleet
thousands
ladies
German
bou
wolf
##OU
toes
stained
libr
depe
##ifted
##igr
moons
crims
Atl
smells
desires
##uddy
lilies
success
Act
Dav
Full
Hill
Jer
Pol
Wood
pushed
tie
##ancho
bearing
##sthe
##iday
worship
##earing
whence
fee
Whether
##place
idle
##ounce
Brit
syn
absolute
concrete
precious
Please
Hold
loos
som
wither
##por
plays
arc
foe
respect
philos
Along
listened
intent
strife
temple
climbed
##ammed
powers
pockets
practice
lilac
folks
piano
author
bored
mould
psy
task
##iam
##aos
tops
##itor
##itable
##irs
Thee
shove
chalk
doom
##aven
##venue
scatter
pron
stillness
##weed
##izing
appeared
sweetness
patience
lifting
priest
pearl
dangerous
rabbit
vessel
Jap
Jack
Oct
cats
##vision
##ata
##onies
##iture
##ada
anx
slaves
coal
carn
curve
doesnt
restless
##shine
returns
closing
wondering
whispers
charge
suppose
scrub
cups
boughs
House
Land
lined
ought
##rs
##omy
stern
##uns
blond
loft
##uls
##elled
crows
strain
deaths
remembering
impro
refuse
showed
solitary
pleasures
disappeared
vanished
gleam
quarter
Serious
innocent
juice
rhyme
conversation
fiery
##ancholy
Home
Mem
Moon
ced
rent
vert
##asc
whale
##verse
##chan
##unken
##umbs
##usted
##ulpt
alas
plains
usual
chem
resol
Reg
wondered
crossing
Next
babies
Mexic
##velop
prize
filling
senses
Slow
Mrs
spinning
murmur
Beauty
brilliant
Dis
Mus
Pers
TV
cord
puff
rim
rod
useless
wakes
##bar
##no
weap
##elly
##iforn
slipp
greed
however
Off
disd
##scri
answers
answered
196
beasts
tossed
recognize
Listen
Sing
Squ
Tem
ming
ri
ty
tal
woo
##book
##ville
##ES
beats
##amps
shone
shakes
reck
unlike
##asses
abstr
Heart
##igned
##lights
element
polished
faithful
terrif
curtains
Across
skelet
Meanwhile
bronze
12
Know
Way
ben
cake
fid
rif
wished
##gins
##inal
##inth
##atin
##itar
##vert
weigh
deaf
##rig
gran
##outs
ages
thence
pred
womb
##amped
cutting
Imp
depths
larger
couch
Phil
eager
struggle
multip
cigarette
stolen
crimson
Gree
Said
dot
fain
hoo
lur
pitch
poured
tries
##ram
##cious
whirl
spoon
amber
exch
glowing
##osen
##quis
letting
stead
artist
inform
report
trip
bottles
leads
##ography
camera
mixed
Dep
Right
borrow
bald
fools
##eem
##uzz
##ka
sevent
##rog
##asts
##olation
swarm
##urned
slipped
stray
##ubs
bug
seemd
smaller
created
muscle
Dece
Sec
grasses
finish
reply
melt
##gypt
highest
descend
duty
Bur
Cross
Fall
Mich
icy
saint
tips
##iqu
##ober
##path
##oral
##asons
wee
deal
neat
##ounded
trash
mos
##osing
skirt
sne
earthly
curled
floats
clearly
footst
cells
obliv
Instead
gravity
Law
ain
bom
cattle
dome
nerv
sore
umb
##do
##aith
##ON
##lling
##otes
stab
sof
grind
twig
highway
memor
invent
paradise
Everyone
wreck
Satan
Russ
Wild
cure
hook
rap
san
##och
##gers
##AN
noticed
blades
##elest
##akers
aren
worms
upright
pole
overhead
crushed
earn
indiffer
barren
prayed
closet
borne
symb
laughs
drawing
Words
violent
survive
innocence
renew
rejoice
Cent
Came
Fore
Pra
Wat
cough
hips
pant
sen
wretched
##bly
##ras
##ham
##uer
##inn
##atives
##oted
##icles
ants
##unks
Thir
sunshine
deser
##awed
belief
circling
pulls
crowded
meeting
birthday
danced
forests
savage
Fo
Lou
Oft
Park
Sud
Saint
cows
lic
nations
pall
rats
##ios
##bble
##ica
##icated
haul
chase
handle
glare
slick
envy
sunk
humble
steal
balls
candles
fragile
gesture
hawk
Around
Cur
Past
crou
tu
##dled
##uing
wasted
spun
lod
clar
alike
sculpt
winding
##ption
resc
younger
growth
throng
thrust
towns
hurry
perfectly
Keep
completely
effort
pilgr
pavement
October
Might
Near
Roman
mant
mile
vague
##ef
##bits
##RE
##into
##org
##onna
##anz
ing
##rose
allowed
knives
clust
brand
ending
appl
creation
caress
dropping
cuts
corpse
marked
consid
gleaming
precise
balance
lamps
surrounded
Californ
intellig
energy
200
Egypt
Morn
Rain
Sus
bud
lull
meth
pace
##AT
sting
##ceed
##ilst
sod
sails
scale
copper
progress
treat
##ploy
##ogue
##ixt
subl
stripped
movement
Poor
rubber
profess
flags
jacket
especially
library
Gen
July
Pink
Rust
Sk
gal
harp
mold
roo
rank
vow
##ege
##mes
##ris
##He
stared
anch
blues
lemon
clasp
##iger
##uding
everybody
follows
Island
putting
actually
merc
ruins
melancholy
anguish
labour
##osphere
basement
Ber
Mag
None
Rose
Satur
lament
lux
tid
wives
##aunt
##lar
##bbed
##yd
##vis
##isher
stove
withd
##andom
##rift
##uman
choc
##ula
unl
unex
saf
##ively
belt
France
adorn
buff
guilt
dragged
serpent
monster
subtle
Truth
missed
blessing
palace
medic
furniture
audience
phrase
##elestial
Div
Hen
Sur
Wel
dazz
hip
hunt
papers
rains
tyr
ward
##aiting
##cast
##Or
##atory
thresh
##itched
heed
atm
blocks
outl
encl
acqu
perm
Beat
goodbye
crest
creep
##scent
floors
wonderful
witch
misery
kingdom
folds
##uminous
jealous
altar
sacrifice
Part
dart
dense
hyp
nic
nail
pains
pools
##vation
##rell
social
load
##antly
brook
mankind
crick
##quet
reads
elsewhere
repres
limp
##bbles
bringing
smoking
promised
##ugged
##arrows
fighting
maiden
telephone
George
violet
Eyes
Nove
cer
cos
dug
hides
lest
laz
rang
vul
##dered
##ault
##rd
##when
##arc
blest
blink
blaze
chose
project
carpet
seeming
miracle
honest
failure
continue
photo
mourning
ragged
folk
wondrous
mysterious
California
Joy
Luc
Put
Ret
Rich
Virgin
cong
cards
fret
hush
jaw
nurs
packed
rays
silly
tum
##mond
##aned
tho
likes
mechan
chap
sheer
button
alien
##ighed
strand
settle
matters
madness
wishes
Conf
maple
lucky
dragon
release
squee
##embers
tremble
Gre
Hot
Pal
batt
econ
iv
jer
pep
##rate
##rise
ther
##itate
##itudes
beads
shirts
reeds
##ilies
soap
theirs
aloud
array
cracks
ench
sunny
State
##plic
surre
guest
rainbow
reality
decided
fourth
depth
absor
funny
climbing
repeat
obscure
substance
grateful
philosop
Sudden
Med
Mom
Master
jail
nigh
range
rushing
wip
##nal
##erd
##aind
chann
chosen
locks
Things
unif
plates
brim
##outher
slop
watches
backward
##thern
crooked
price
foes
Dev
##uffled
sands
squir
radiant
worthy
fragrant
wrest
Angels
metaphor
desperate
doctors
Hath
caves
vines
##mal
##lt
##vas
##You
spill
##estic
royal
##ager
sliding
Church
dripping
crew
Alone
Although
midst
##enced
corrupt
corrid
fury
boxes
stole
modern
shouting
islands
Comm
pouring
puzz
museum
scenes
pencil
Bell
Big
Lake
bene
hom
link
lamb
mouse
rack
##aire
##nut
beak
##ental
mee
##chief
washing
##anda
alarm
##olic
conj
aged
##angle
ens
wrath
perpet
##ization
Theres
passions
veget
hairs
woven
Somewhere
eleg
Neg
uncertain
195
support
shores
liter
grove
parking
crawl
argument
cigarettes
darling
psych
Ben
Song
Sub
Soul
Vict
ditch
gazing
rit
random
vir
##net
##nings
##was
##arf
##isy
##icle
suic
swinging
pointing
print
offered
justice
snap
endure
vein
Frank
surge
create
goddess
##ooping
occur
condition
swallowed
whistle
photographs
stubborn
trumpet
searching
farewell
December
15
Ass
Eden
Hear
Mil
Mine
Nay
mate
sack
saints
tire
##afe
##bows
##inge
##uted
beet
##lyn
forbid
##ags
sullen
willow
pover
trim
trains
breathed
boast
warning
buds
marry
mirth
stepped
elev
throats
magaz
gravel
melting
##anese
suspe
television
orchard
nervous
Much
Ter
Tow
core
##yss
##On
##ndry
##itter
##otch
##sto
##alian
spaces
cann
conse
goat
handed
##angled
coy
prow
##uded
twin
Thats
remembers
deadly
farmer
counting
touches
faire
risen
prair
##who
pressure
scratch
meadows
susp
aston
haunted
weren
pigeons
ribs
threshold
November
poverty
Ere
Fate
Hall
Tree
Tonight
VII
fading
gust
games
hue
ze
##inger
intend
weave
##inder
flashing
unable
slips
terms
refuge
strip
transparent
joined
helpless
perfection
undone
March
vanish
##pected
sinking
reaches
bucket
tangled
settled
inhab
obey
Mark
aid
creek
mast
rom
sins
tro
##mark
##off
##nic
##uction
##kward
##onic
inj
##acc
bending
##ste
fors
sha
meal
seal
demon
##andel
alley
losing
flows
upper
##cture
##olved
##assed
mole
wherever
goss
struct
peach
Behold
greatest
curls
kinds
kindness
bury
reflection
ringing
expected
horns
chocolate
Ever
Hist
gorge
morrow
nap
narr
tiss
##wed
##EN
##rels
##itches
stun
stays
##urity
fruits
anon
span
likely
chick
##arded
flaming
##urning
backyard
peas
writes
slender
speck
Therefore
##away
Franc
sixty
##anny
fatal
halls
occup
address
glitter
cliffs
globe
##racted
princip
Beside
Arab
Hes
Save
bench
fern
ore
piled
ripped
western
##dro
##rain
##When
##icient
shroud
memb
##cel
##ilty
wholly
##istic
##oused
grapes
slope
##ilet
coin
prince
Star
contempl
##neys
sideways
term
evidence
actual
forgetting
admit
Better
damn
hedge
cherry
necessary
consciousness
Venus
cedar
Saturday
atmosphere
13
Bill
Dou
Hope
James
Lost
Mc
Round
Tre
dump
gang
lan
lun
wires
##iable
##oft
toy
liken
heal
meets
##roken
blush
knuck
sage
exile
glide
slumber
nightm
seeking
cru
##pses
shallow
##atters
recon
doorway
brightness
starry
instruct
showing
bigger
ladder
peaceful
dimin
hundreds
Indians
value
perfume
liberty
Transl
Mir
Mel
Sol
Wed
dip
fists
nought
nerves
oo
piss
sank
tides
##liness
##boy
##ga
##tain
inex
##etic
##sth
##urance
##vere
shudd
reasons
sem
blazing
lege
plenty
##ifying
whats
##agger
trap
feeding
arise
slim
overl
covers
crit
crust
env
remained
remote
colour
summon
##attan
accom
attack
Leave
bowed
197
absent
Except
valleys
throwing
bathroom
gloves
shepherd
insects
phantom
custom
Michael
##outhern
Fort
Years
du
dom
dial
tul
##iar
##bel
##gd
##gent
##tles
##then
tore
shifting
hail
##ilar
##ppy
clam
plac
awkward
sniff
perman
employ
Ann
##ocr
evry
strikes
stronger
##anna
advance
embarr
tempest
temples
stuffed
eagle
vacant
Others
Children
safety
Care
Ele
Paul
Rel
Tri
Vall
cub
ok
vest
##lies
##We
##Where
##isto
##ico
lid
shattered
assemb
meek
##erson
##iece
brut
scars
slides
underground
Nobody
warri
guitar
Shad
realize
indust
instinct
dresses
collaps
craft
roofs
drifts
blooms
determ
torment
portra
rags
pearls
butterfly
repeated
Silence
jewel
fabric
footsteps
Bless
Dont
VI
Women
luc
luminous
marsh
tales
##mons
##lor
##bra
##fin
##inged
tools
inher
bends
haze
##ria
orn
chorus
legged
dozen
grat
trapped
gloss
##berries
Forg
Anne
Isra
impat
served
Arth
transform
Bright
schol
charms
withered
groves
Christian
troubled
concent
admire
powder
laure
position
elephant
disease
Atlantic
granite
Aut
End
Gard
Pac
kick
pushing
##iac
##bell
##ointed
##ha
states
##iration
shiver
rear
revel
##usions
cany
grape
manner
swir
excess
exec
hadn
darker
evenings
snakes
##bec
household
curl
drives
marvel
talks
purse
##ception
Brown
hurts
True
oceans
screams
odor
complex
character
instrument
micro
government
11
Bra
Cast
Dist
Lear
Sept
boo
nymph
wicked
yon
##lorn
##gic
##view
##ona
##isk
shown
soaked
shelf
outward
science
quit
##quent
tech
cheese
driver
disturb
##rup
fully
starting
confused
stirred
demand
dwelling
dollars
reveal
released
version
Daddy
tunnel
David
Als
Cold
Hung
Sam
Woman
az
fest
gaz
jet
kin
trop
##mo
##tr
stems
isnt
sprou
##ulse
roam
robes
cane
agree
awe
earlier
remove
drunken
Soft
newly
##ggy
bund
friendly
deeply
##after
intric
repose
trib
interior
bleed
silently
necks
explos
angle
ideas
beaten
leaned
model
replied
cabin
respons
glimpse
grip
influ
ancestors
Cher
Fin
Fear
Met
braid
gum
haste
lav
nipp
sill
##lasting
##bone
##bler
##It
##athes
toast
##icate
##icago
whim
reward
wasnt
plat
roaring
##aging
trad
tramp
scales
##itty
cruc
disg
darkened
China
pasture
secure
pleased
monument
invented
minor
interp
helped
melody
potatoes
crowned
jumped
lifes
leaping
stalks
affection
script
16
17
Cut
Coll
Latin
Making
Oce
Word
bol
cem
cred
eats
fulf
hoof
harsh
mall
rate
sow
##aus
##phe
##rons
##oric
##anqu
##eto
##alp
shared
robe
canst
##venge
screw
##osd
Young
prev
disgu
wanton
Ask
perch
##izes
parting
guilty
Rec
instance
Arch
kissing
genius
entrance
seconds
castle
arrives
candy
machines
expression
moral
prepared
##What
fluttering
excell
upstairs
citiz
suggest
Summer
cradle
disdain
umbrell
14
Acc
Bed
Jim
Ten
cunning
jung
lots
opt
piles
rul
tables
yonder
##kins
##itching
staff
##vels
##ura
heel
##illa
haunt
weird
butcher
claws
canvas
swan
Head
agony
coins
crash
bred
##quer
teen
team
##fulness
happening
summers
serene
visions
powerful
mistress
##overed
motor
leading
wandered
spreading
scarlet
harbor
hoped
Prince
erect
measured
bursting
swells
delicious
enemies
shooting
discovered
syllables
Japanese
type
pilgrim
lantern
Cap
Di
Work
Winter
caf
gin
lane
maps
pane
ridge
##mm
##down
##iel
##lie
##arily
toe
beck
##imp
reed
render
sock
sober
Thank
Thought
novel
clown
club
brittle
swam
everlasting
overt
enters
Stri
remark
drums
perce
rests
restaur
persist
formed
Left
lime
spreads
sinks
Strange
movies
gestures
describe
wonders
pronoun
abstract
Also
Aw
Dam
Peter
Sant
Tur
aught
bri
facing
gasp
hated
maint
mama
voy
##IS
##iner
begg
frog
##allen
socks
flatt
alph
plung
##ourse
sup
switch
scy
exists
sleek
guests
distinct
counted
signal
kneel
immed
defin
certainly
extreme
hoping
##yram
Peace
species
avoid
Desp
olive
elder
ankles
coffin
selves
sublime
History
Bring
Having
Snow
caps
dil
fishing
pours
##lot
##birds
##rated
##full
##wind
##OM
##hell
##erc
##erous
##onse
##ller
##utter
##ican
hee
seam
##uming
leans
unn
cler
suits
sucked
concl
arts
skins
couldnt
Forget
dishes
disaster
removed
##ivity
appre
curved
righteous
##umbles
individ
fairy
closes
error
interrupt
drinks
understanding
factory
vanity
rustling
massive
pursue
neglect
debt
berries
Open
cousin
ecstasy
material
January
September
Dar
Er
Mart
Rest
Us
fanc
fisher
hats
na
tough
wink
##ikes
##lest
##ban
##rice
##hire
##fold
##fire
##xx
##US
##esc
##ithe
##icious
deed
sparrows
##umns
chaos
##ante
brink
cans
manage
##sels
slain
skirts
crisp
sunrise
calld
smallest
careless
events
intimate
forgiven
limits
melted
divide
explod
concern
sprink
##hetic
major
intellect
sympath
newspaper
likeness
Avenue
Born
Capt
Gh
Hon
Mor
ach
balm
cash
dash
domin
ful
mim
sir
tires
vows
yr
yawn
zero
##hile
##uation
##uds
##Who
##othed
##icip
##stand
##urst
forlorn
spur
spear
neer
##acking
cling
clad
claw
brains
##abet
Inc
manif
using
Italian
handful
slice
crush
##orted
snows
tren
##renched
curb
cursed
rights
sounding
elbow
obvious
showers
Bridge
198
regular
destiny
destruction
Looking
rusty
modest
fifteen
Yea
grieve
display
judgment
ignorance
according
Henry
cosm
uniform
prairie
Translated
Arthur
Eye
Less
Sy
Tra
bould
faster
hire
lac
lays
nerve
pel
rattle
tape
trod
vale
##town
##wr
##IT
##alo
##iders
sew
seats
spraw
##ola
score
##anges
slack
boom
boss
didst
strung
Stand
goodly
appet
dragging
snowy
freely
subway
cathed
mini
elements
furious
##bby
##bbled
##ooped
hushed
Grace
continues
shrill
prophe
passionate
archite
fountains
title
original
muscles
group
Circ
Five
Pain
Port
Sin
dy
ecl
nameless
ta
tucked
wits
##dam
##bus
##his
##inate
offe
##acco
stall
doves
##ieves
##cknow
##ulated
##abb
grade
Inv
usually
ard
##osc
peop
wrap
Chicago
added
hearth
sweetly
workers
recl
freeze
subd
bushes
##prints
picking
Twas
##olly
groan
dances
shrine
autom
floods
orders
Emily
belongs
Eternal
exchange
bombs
lazy
ritual
Es
Hand
Rob
Sad
Sent
Troy
caut
dign
hither
obed
raz
tatt
##ih
##ok
##nde
##isions
##lem
##ldom
##iculous
deem
leaps
##olves
plough
##ability
ropes
scared
somewhat
twas
focus
carc
Shakes
##riends
distress
Almost
fingert
fearful
refused
intense
##bris
parall
coral
illusion
##boards
streaming
constell
stores
weakness
surprised
flickering
degrees
Poetry
anchor
pepper
Suddenly
Francis
Pacific
Gone
Pray
Rom
Sav
ais
cad
cri
fences
guts
jaws
lute
nigg
ult
wy
##eer
##might
##My
##enger
toilet
haired
reject
##rooms
flush
##ods
knots
shes
##oline
brows
rosy
poll
wherein
quivering
pregn
strict
darkening
wrists
fired
resting
##umpled
nearer
realized
lesson
laundry
relation
limit
Clouds
supper
promises
immense
##udding
bounds
sprung
received
swallows
threads
complain
linger
Speak
logic
President
pipes
martyr
##quisite
Israel
Bird
Ca
Faith
Ken
Liber
Power
bun
bands
cement
celestial
lave
nour
ry
tank
##dles
##ially
##leness
##oh
##ford
##wear
##Is
##xed
##ano
whip
shaken
shiny
asce
asph
sealed
sparrow
##rian
orph
dock
knight
nostr
unst
aloft
bricks
##abor
cancer
subs
coats
twink
folly
acid
parted
Read
Reason
armed
decor
decide
relent
confusion
collar
Washing
prompt
pressing
generous
torch
deny
hunting
victory
paused
statue
whistling
dissolve
knocked
jewels
scarcely
sleeve
bewild
glistening
lofty
mosquit
surrender
tissue
Ocean
Ay
Abs
Bay
Late
Pur
Set
cyp
gonna
lick
paw
tame
##bru
##rim
##rum
##car
##yre
##va
##St
##ini
##esse
##enched
thor
##ita
##owl
##utch
##acon
stacked
beheld
##rible
##umm
champ
##rag
theme
abund
scan
arrows
slaughter
slipping
wouldnt
breathes
peri
colours
creeping
Seem
nearby
Blood
intr
throws
Unless
Neither
schools
sixteen
Amid
##ugging
planes
student
generation
garbage
millions
geese
dollar
gallop
statues
##ING
bubble
linen
chimney
rapture
intelligence
medicine
Cat
Eas
Fam
Od
Pan
Sto
pic
pup
wan
wail
##pit
##ca
toys
youve
haz
ascend
sends
org
##usd
bye
##ctic
shew
outer
swung
abyss
Hey
##urns
slant
backwards
prick
breed
quiver
afar
undert
prospect
drain
perish
strewn
Att
##retch
emptied
startled
repent
attic
decades
parade
tribe
##theless
bitch
squat
191
crowds
useful
balloon
delay
sickness
stately
blooming
approaching
damned
Eliz
swelling
sparkling
dreadful
designed
furnace
facts
latest
issue
circumst
Mexico
oblivion
suicide
accompl
Alex
Hor
Hur
Prop
Ver
cav
mice
nav
rug
rides
sinc
##iation
##rane
##hol
##ID
##eries
##arms
lids
Them
##kend
##aments
click
plus
sailed
grant
Inter
swamp
feeds
overfl
howling
drug
dreamt
However
northern
normal
kindly
floated
subm
catching
terr
repair
sandw
Uncle
college
drawer
##uddled
continuous
students
tenderness
fragments
virtues
require
afford
cottage
thorns
##works
conquer
culture
torture
Surely
religion
suspended
Birds
Dri
Free
Friend
Happy
Lar
Mond
Oer
aching
bin
bust
code
pyram
sip
tiger
vice
yards
##bul
##po
##cal
##vol
##So
##inction
##acts
sev
hiss
##unge
flakes
##rawn
##ements
##oln
swords
pollen
amazed
awhile
offers
blackness
sweating
apparent
farr
sweetest
rocking
Ref
bellies
obst
crosses
Brother
smelling
trailing
Close
barefoot
Manh
##hole
spotted
shouts
condem
capital
harmony
reflected
ribb
Robert
blurred
cloak
sleeves
degree
bridges
tasted
Imagine
companion
feeble
rifle
influence
Bible
Hence
Jud
Six
acknow
gull
muddy
pots
rotten
sly
tense
##days
##nel
##uh
theater
##erate
##ouched
##enance
##itan
##etery
youll
heroes
##unts
debris
##apse
challen
Thunder
##ieved
upside
##igo
scented
glac
slid
boil
##ortion
sweeping
##izzy
##resses
empire
handsome
parties
broom
monst
##uffs
Arm
err
disco
melod
divor
generations
messages
pinned
advice
claims
descending
masters
Jews
frightened
fucking
daddy
political
Apoll
Africa
skeleton
Russian
earnest
Louis
Rustum
unexpected
represent
economy
jungle
100
Ach
Comes
Kings
Wis
Wall
aqu
bade
dye
fits
fug
gazed
kicked
naught
oaks
##maid
##aa
##inges
##oma
beings
fork
aspect
develop
spots
spilled
##usive
##ulating
unsp
plucked
whenever
hadde
downward
##uddle
##ortun
##ques
disgr
offering
##ublic
humans
series
compre
listens
Blind
believing
barbar
clearing
praying
Brook
apolog
divided
Joe
planned
climbs
unfur
scrat
failing
nests
drowning
fifth
reverse
selling
lifet
flutter
bubbles
revolution
hymn
route
arrange
hovering
anxious
indifferent
Washington
Aust
Ang
Book
Gal
Ju
Ox
Self
Trees
Val
fert
fails
fuel
gild
jars
ket
lakes
lords
mint
nut
tan
##yer
##ede
##engers
stink
stares
healing
seated
doe
alb
brute
canop
swaying
exerc
slab
##osition
windy
airy
birch
advent
deepest
purch
stepping
strive
correct
corpses
William
shopping
views
afternoons
studied
shrink
##forth
universal
Small
sparks
##omeday
trucks
rarely
patterns
respond
cardboard
escaped
fashioned
satisfied
information
twigs
shaft
stunned
chickens
Manhattan
Aunt
Cour
Find
Ha
Lie
Linc
Mur
NO
Tex
Wait
XX
bump
bicy
dive
fir
fake
gulls
hen
lump
##eur
##hand
##uf
##cony
##AS
inches
##omas
stew
##urable
liz
shaw
shifts
seldom
blot
##emon
clover
brace
##ourd
##athing
sund
swings
mob
seeks
remo
##aware
emotion
Friday
painter
columns
marching
##uffed
realm
##ippi
imaginary
discip
sooner
smelled
illumin
rubble
screamed
details
husbands
sticky
stirs
spoil
sexual
caused
mystic
severe
crawling
required
excuse
Charles
jeans
encoun
convinc
destroyed
fluid
Maj
Music
withdraw
Away
Corn
Fly
Fro
Field
Jose
Lay
Mont
Pet
Sky
Vo
Yellow
bows
diver
goose
pap
pounds
riv
tones
##dling
##ta
##fig
##ware
stark
##iless
bled
##ardon
##aky
outs
unch
altern
brushed
abroad
exquisite
arrest
lighted
booth
peer
prose
desolate
silken
##ucky
adjust
singular
colon
marrow
retire
woes
impr
believes
families
patri
acts
fellows
easier
spiritual
##They
covering
bullets
antique
prisoners
tunes
balcony
digging
victim
directions
bruised
Helen
dangling
201
weapon
considered
Negro
pregnant
lavender
Bow
Hy
Low
aver
bass
cale
eaves
gap
lark
matt
num
riot
sate
ties
tors
tails
##ients
##gain
##zer
##If
##LE
##heart
inscri
##amas
shuff
shivering
##rial
leapt
worried
whoever
##olas
##athom
##auc
comr
##udder
entering
Step
thyself
blackened
friendship
resur
Already
mete
refer
layers
shadowy
hurried
cloudy
possibility
##flowers
shoots
military
suffered
coup
turnd
eighty
dusky
measures
sorrows
counsel
prepare
lyre
struggling
Loves
currents
splendor
celebrate
defend
exhausted
Irish
riches
Slowly
hooves
Follow
impatient
techn
intricate
restaurant
Liberty
##bruary
Jul
Pri
ay
aer
gross
hates
junk
mes
mens
pills
rasp
ya
##oil
##pass
##sers
##case
##cery
##Like
##From
##orid
##itie
intern
##irth
##sey
##urnd
hey
shun
framed
##ilke
##ilities
##rier
chir
flown
sheen
outst
##elling
##aby
groo
uses
consp
scre
scree
hearted
airs
goodness
adore
singer
beauties
##umbers
Heavns
Flo
murdered
planets
choir
harb
Exp
Yesterday
anticip
precip
queer
ashamed
Seeing
casual
extended
rattling
Throne
vigil
Praise
tumult
structure
permanent
Autumn
parallel
monstrous
Days
Hop
Jane
Lim
Sound
bast
bother
dared
hamm
mig
ramp
vag
wi
##rings
##hh
##uv
##wart
##vin
##erving
##rem
onward
forces
revenge
loom
doc
flashes
##eman
##olk
convey
sciss
glories
##osure
bond
oldest
drone
heavn
sounded
musk
##ruce
barrel
skinny
thrill
relax
besides
whiskey
region
ceas
radiance
verb
hello
petal
drifted
hopeless
Prov
pleasing
rotting
##rolled
pigs
utterly
##world
delivered
cycl
violets
characters
compassion
buttons
British
blonde
perpetual
inherit
individual
calend
Den
Mal
Mist
OF
Pen
Ra
Stop
Tim
Watch
cod
calf
eer
jazz
kills
lens
nay
pir
ruff
tattered
##mans
##mates
##ties
##edge
##orph
##orical
init
##etition
##essed
blunt
blinking
chur
chant
loaded
lovd
##antage
united
clocks
plans
plaster
tranqu
feared
##ipher
nighting
howl
##ensity
watery
drill
peril
##peror
carr
waver
Fruit
##alem
##beat
humid
harder
breathless
brighter
impulse
monarch
monkey
repro
jokes
risk
sights
languages
mission
##ropri
continent
hallway
ideal
gathers
urge
torrent
tearing
twisting
lyric
axe
mournful
Baby
total
cousins
wrinkled
Simon
Square
galax
forbidden
magazine
brutal
cathedral
Hol
Ly
Pho
Talk
Times
arose
bere
bower
eve
giv
hive
jelly
nets
oy
tas
##aic
##son
##hill
##uished
##AC
##van
##EL
##resp
##anium
topp
##utt
beans
##urate
##idents
mend
neon
loyal
##estone
dol
area
theyre
##embr
clinging
ros
grains
ponder
moaning
##isht
boards
proceed
perched
##iana
Seven
winning
yearning
visited
helmet
armies
##brush
##ounced
satin
##ernal
possibly
##flower
splin
crab
choked
continued
traveling
rubbed
portion
motionless
sailors
conscience
murmurs
abandon
##raction
panic
disappearing
charming
flicker
Spirits
eventually
Mountains
cooling
spheres
rapid
symbol
Victor
legend
Valley
portrait
Garden
scythe
asphalt
Lincoln
Budd
Mind
Mars
Obs
Sand
Wal
ath
nim
pierce
rue
##mat
##lines
##com
##inas
##inated
##oust
##aculous
stale
##icted
lions
forb
herd
##oren
spiders
flare
Whit
##abeth
Ins
therein
trance
exit
goal
glove
overw
skim
pebbles
underwater
reminds
restr
elm
margin
retreat
starlight
territ
perspect
forgets
Leaving
trails
picks
ghostly
Scar
youthful
concer
filthy
crowns
fortun
hunter
##iiii
prodig
volcan
murmuring
possessed
borders
Beautiful
cheerful
Golden
diamonds
clutch
shimmer
increase
Eternity
unhappy
##ointment
School
ignorant
ducks
mingled
ivory
elegant
Toward
alphabet
appetite
Shakespe
seventy
Det
Easter
Gil
Lau
OK
Saw
Virt
bount
baff
fund
fades
gale
hier
mule
migr
punch
sid
ton
taut
wagon
##eenth
##iately
##low
##lished
##pan
##ua
theory
##utions
##stal
##keys
##amble
section
nect
flaw
##ulations
##ppers
clap
plume
##ignd
mang
##itely
sche
scraw
##orns
glob
cob
sket
proved
proclaim
drows
lett
sleepy
cleared
contained
landing
musical
subt
suburb
introd
invest
imagining
Imm
humanity
##bbling
##grown
penn
folding
falcon
fragrance
conduct
servant
oblig
Mississ
sucking
pretending
ambition
rigid
##break
Greeks
Welcome
inhabit
gorgeous
cemetery
umbrella
fingertips
Elizabeth
Monday
Lad
Pale
Sons
Singing
battered
les
##iat
##iour
##aque
##bet
##oir
##rust
##gun
##gest
##gency
##tail
##vid
##OO
##heard
##rep
##othe
stamp
##ication
bean
##urbs
froth
rect
##tery
hissing
spat
alleg
sovere
fling
##ulty
##isting
Int
poised
moor
features
smashed
downst
glue
greens
throughout
##onds
##onscious
sweeps
##ucks
##uckle
##tegr
airport
##inson
guards
elbows
##cloth
Spain
attached
merit
uncon
199
194
deliber
milky
wreath
stirring
avail
denied
protest
balanced
volume
February
tube
splendid
bruise
##culiar
whirling
instruments
nineteen
borrowed
rescue
Beatrice
okay
azure
Santa
cypress
Best
Da
Dan
Duke
Mass
Ray
Ros
Try
aunt
ded
dung
gigg
hut
hound
hug
lent
mush
maze
vital
##rical
##uate
##ups
##cence
##AA
##All
##kers
##Sh
ine
inev
##uter
stains
stagg
##urbed
myr
shred
weaving
##ession
dearest
##riel
chis
lend
##epend
##ppies
unrave
##istry
alter
roast
gracious
scare
excl
##iph
awak
dispers
Stone
Start
States
acres
##gger
##rowing
crept
stealing
##eking
spiral
edged
accent
parr
lowly
central
laden
bleak
sufficient
undo
towel
##ambers
vanishing
turf
ledge
butterflies
captain
crawled
revealed
skulls
briefly
response
railroad
whiteness
shimmering
ankle
African
shriek
vibr
Greece
sanct
corridor
benef
canyon
Ghost
nostrils
Age
CH
Fish
Freed
Ren
Vis
bi
bum
baked
crop
cops
drought
esp
hues
hooks
hounds
lass
mac
nib
paws
southern
vile
via
##hou
##uz
##Be
##By
##án
##orie
tob
##itute
infect
##leg
##idian
##iddy
##kel
##illes
##ighted
atom
chased
Thinking
Thomas
noises
unkind
brist
##ifully
mane
manners
suc
contend
feathered
lighter
backed
##osph
nightly
##berg
quality
prevent
peculiar
##order
painful
happier
##ixed
beauteous
hairy
disting
grounds
intim
##spring
educ
striking
president
formal
discuss
##heads
assume
poles
merch
193
flowering
devotion
splash
equally
blankets
cellar
Glory
eighteen
violin
fragment
glee
profound
capable
survived
geomet
tempor
descends
suspect
magnific
decline
declare
ribbon
nurses
necessity
malice
moths
mentioned
arranged
newspapers
anonym
Captain
lifetime
Lest
Pull
Says
batter
cooked
jun
loop
maker
mental
owe
pins
pomp
pensive
rou
sul
sine
ted
tents
tipped
tumble
wil
wint
##bones
##rh
##rus
##col
##IC
##hend
theat
thru
thief
##omer
stony
bef
##stick
youd
liver
##amd
##ooled
myri
frames
##ainted
##rove
sobbing
##usc
choo
union
plump
sale
##agers
poly
tract
##fted
scroll
goats
enth
preced
peep
hasn
descent
sweats
womans
buoy
curves
drip
Whoever
recent
Dec
Somebody
courts
access
decision
##istered
incense
hurric
blinding
sentiment
drying
charity
unders
Place
dancers
traveled
construct
garments
parked
sighing
hatred
detail
shouted
dewy
dolls
barking
raven
multitude
heroic
including
escapes
baseball
politics
treasures
trumpets
procession
flourish
sirens
Memory
greedy
sofa
dazzling
slopes
gossip
kettle
Mississippi
25
Body
Bost
Boy
Dem
Found
Mac
Race
Roll
bathed
file
ivy
lush
nuts
rushed
site
tumbling
waved
##ij
##bur
##bound
##rome
##At
##nders
thither
##itated
##stant
##ila
seize
spilling
##eline
flav
##ieu
##elle
##ifies
grease
##iper
enam
Stra
anybody
silvery
sweets
##awk
goods
opin
lasting
##ignant
##anked
curling
elo
##shield
breaths
Almight
horrible
rounds
catches
expensive
intention
helps
armor
##gedy
eleven
##ouncing
Heavens
circled
reluct
lately
tragic
blinds
melts
absurd
##ollect
Scot
penny
photos
sprang
Princ
swims
stretching
engines
irides
Thanks
endlessly
welc
descended
Strong
##chers
thirsty
beef
widow
ferry
copy
identity
Walking
companions
fiddle
Often
applause
narrative
platform
sympathy
period
Cry
Cook
Fare
Girl
Ham
Human
IN
Live
Ob
Ori
Town
Wit
Year
bike
bolt
gig
oven
rushes
wak
wag
wipe
yo
yoke
zone
##ois
thieves
##isons
##itors
##oting
ster
stack
stake
stumble
##ician
onions
isle
frantic
revers
##alling
##allic
spills
soc
onely
##isted
alco
##ifer
granted
Inn
##aux
scalp
amount
background
##osis
##ipse
crumbling
boiling
longed
stricken
peel
peck
writer
desired
silhou
earths
homeless
sweeter
records
landl
steaming
counts
countries
##sof
##almon
Arms
striped
erased
Ohio
patches
kneeling
syrup
strangely
Americans
supply
##which
angles
graceful
surfaces
troubles
travels
rusted
##coat
Johns
gleams
pillars
powr
rooted
Swift
comfortable
privile
shelves
estate
directly
mansion
etc
tangle
rhymes
mysteries
ripples
pigeon
dreary
resembles
fleeting
weapons
slippery
deserted
clarity
crickets
fairest
reconc
disgust
café
thorough
ribbons
disgrace
Shakespeare
nectar
Boston
Cath
Cub
Face
Hail
Jac
Ol
Viet
bamb
bitten
ding
doo
dates
fans
fiend
gulf
jest
mound
mines
nud
ware
wren
##books
##nant
##gthen
##hine
##ET
##inent
##ether
stacks
##ador
begging
shru
herbs
herald
##roid
##through
##inda
orb
choke
lov
##rable
worsh
noisy
plumes
role
abide
abrupt
coarse
crumpled
##lesh
windshield
underwear
Standing
snaps
Soh
carp
Goddess
fireflies
wells
guys
restore
monot
exposed
visual
barbed
joyous
miraculous
trial
tribes
transport
joints
fourteen
bowls
mistaken
insane
dancer
scratched
penet
daff
rustle
machin
##black
pulp
servants
punishment
swiftly
product
masks
scraped
grinning
shepherds
taxi
gradually
sustain
shovel
vulgar
Virginia
cannon
intended
##stein
Forgive
Finally
peoples
razor
sincere
Brooklyn
21
Broad
Ce
Draw
Et
Either
Gar
Mis
Mol
Mama
Wonder
bathe
gy
gotten
jam
mun
oar
pans
rails
tab
tink
tiles
tumbled
vivid
##iage
##ront
##nie
##uum
##cup
##your
##No
##0s
##anse
##isure
##itals
fract
meas
##inders
orche
##astly
flute
ups
##rys
sailing
##agne
pose
traces
Held
Hector
commer
agreed
glazed
slate
skip
crumbs
printed
##ptuous
peak
darkest
pros
Stick
snapped
drained
draped
emp
##ivd
##igns
chew
clever
heavily
reader
girlf
distances
returnd
halfway
fingern
freezing
wildly
courty
lesser
##ipper
selfish
joint
similar
confl
Leaves
neckl
scarred
natures
louder
observ
turtle
strokes
banner
gladly
detect
odds
pillows
tomatoes
Empire
favour
hunched
##ylon
trembled
claimed
tossing
emerald
departure
heights
yields
baskets
liquor
majesty
interesting
fantasy
Supp
vapor
Temp
Depart
Divine
consequence
nightmare
tradition
miniature
Apollo
Texas
##embrance
tobacco
wintry
bamboo
Disc
Emb
Fre
Fle
Gray
Makes
Powers
Suff
Tues
aven
bats
bills
cact
drenched
dizzy
fucked
ginger
hits
licked
lashes
oars
py
pens
vide
vase
wal
##lay
##oven
##rine
##uals
##She
##ota
stump
##stones
fried
frank
seized
notion
anew
spy
##rived
chatter
chips
chaste
##asty
flapping
##ulent
knelt
##sses
##ella
plunge
brine
##igate
##agues
swore
tricks
trunks
ample
glows
glances
##ishd
crude
quart
quoth
pend
peering
heading
snar
##rence
##ressing
partner
survey
Wherein
##iah
crescent
security
countless
monks
softened
commit
alongside
fres
thirteen
thrice
forming
circuit
corresp
##ilton
centre
flex
sentences
collapse
eastern
grab
grabbed
badly
casting
splayed
litter
leafy
explan
scraps
scarf
loudly
fatig
dais
##This
prophet
stretches
specific
Hello
raging
sailor
paintings
owls
possession
echoing
ticket
knocking
transluc
annoy
nodding
problems
verses
pierced
effects
tastes
opera
physical
Morning
philosophy
channel
tulips
embarrass
excellent
Wisdom
Din
Dick
Eight
Gate
Hum
Max
Rise
Sister
Tor
Tam
cases
ic
jug
mamm
pars
pious
rural
tug
wist
wolves
##iated
##life
##balls
##piece
##ture
##hor
##cut
##erals
##ourage
##orial
##lls
stumbling
stench
whales
##lym
shark
hallow
aspire
seals
sewing
wast
chambers
upt
unsh
##abel
grit
slit
slap
##osh
cris
crimes
envel
Youre
await
strains
peac
peaks
Ash
tex
childish
owns
owned
newborn
passd
chewing
cleft
contains
recollect
column
##ibilities
compare
grassho
##ronic
accum
Unto
biting
staying
poetic
active
uncom
bleached
charged
##grass
priests
dipped
secretly
blessings
trout
nakedness
griefs
wishing
##aturally
pinch
urn
driveway
profit
Prof
causes
utmost
prisoner
unborn
survival
practiced
collection
lawns
coward
##uminum
gloomy
bulb
glimmer
constantly
fetch
interested
piercing
Camel
depend
Second
crouched
wiped
Devil
##drops
shuddering
dignity
carcass
cripp
challenge
exercise
Farewell
30
Amb
Bad
Bal
Cong
Coming
Domin
Happ
Hands
Ragged
SH
Sou
Ur
cens
cush
dent
dyn
darts
fib
fitting
hint
hooked
lore
laps
mare
nat
ot
oct
saving
sighed
someday
wad
##dens
##ais
##oise
##nets
##will
##Not
##rection
thump
##lev
##lder
stam
##adem
##icit
itch
heaps
shack
fraud
sending
heron
herds
##andy
chat
logs
Tho
flap
##ulch
nobler
unit
unle
uncl
Whilst
managed
##icholas
poster
tray
##icker
feature
arrog
qual
stride
strands
earliest
Stood
deserve
snatch
##awing
ador
farms
bugs
begu
contact
guile
resign
##otta
rained
landed
##ictions
flowed
impart
starving
##ocal
miracles
##they
football
saddle
apron
synt
Doctor
Cloud
##boat
entry
##gram
motions
smoked
##anners
delir
grocery
explained
clothing
clothed
delights
bloomed
garage
garland
ordered
safely
irre
Fathers
ignore
dissolving
hyd
rabbits
translation
poisoned
pilot
halo
Tomorrow
sports
Super
gauze
religious
Jerus
grinding
lullaby
luxury
cricket
elevator
bundle
maintain
immediately
tattoo
Caes
canopy
torso
envelope
Dro
Dest
Dry
During
Fast
Friends
Ice
Jove
Kore
Name
Ok
Roy
Sar
Sor
Tro
Tower
Very
Went
Wear
Western
ale
bunch
divers
fren
gained
hone
huddled
sized
salmon
ting
##mate
##iked
##ox
##obe
##nis
##gage
##hal
##cles
##yards
##inous
##eted
##irls
##lys
##iments
hap
frogs
spins
neut
Thro
upro
clatter
plague
##about
##olds
swans
downtown
lighting
##pty
boiled
##avel
foss
Whats
snail
blackbird
##ucking
shouldn
##hereal
holly
Whereas
reserv
rested
rainy
##umbo
burial
##ulture
monsters
composed
grassy
indul
invention
lessons
skinned
helm
idiot
persu
warming
miserable
Justice
boundless
verd
arrival
concert
hideous
engage
##ynge
notebook
paying
bursts
locust
hunted
Crisp
trembles
gallery
faintly
##loat
calcul
##Which
mocking
teachers
Jeff
buzzing
essence
essential
##fields
authority
seventh
seventeen
weekend
rooster
squirrel
credit
voyage
trench
Eastern
mattress
scissors
nightingale
perspective
daffod
Jacks
Rub
Sold
TO
Tart
Took
Touch
Und
Ze
cakes
dots
dandel
ether
fel
fishes
hull
hog
hatch
moo
molt
raid
racing
vault
wider
wailing
##ba
##bers
##cil
##inity
##asies
##otent
##otions
stations
stanz
heave
shap
shops
hare
##orescent
soar
loses
Thurs
##ctions
sheds
##toe
##tops
unim
unaware
trained
concept
smeared
Together
greasy
overcome
##ishop
quaint
Youth
awoke
##ensions
mayst
sometime
earthqu
sleepless
hoarse
Shal
recover
##shot
phosph
purity
rocky
intact
roadside
infer
Heavy
discern
squares
bowing
polic
polish
blinded
graveyard
charred
devour
stopping
##ambling
##strate
labyr
trousers
stormy
photograp
entertain
Enough
existed
breezes
tombs
harmless
ridiculous
guessed
Carl
##III
cruelty
popular
produce
estab
recognized
dissolved
splendour
Knowing
sidewalks
tunnels
knotted
betrayed
dwarf
##kerchief
precisely
virgins
knuckles
warrior
citizens
forgiveness
architecture
abundance
gilded
calendar
overwhel
Bear
Fer
Faust
Fresh
Got
Kind
Kiss
Lab
Moses
Nine
Ring
Rad
Saying
apt
cask
dining
dazed
fiction
ii
lash
lanes
mounds
rac
rilke
sie
vom
##mine
##aited
##oor
##An
##AM
##vous
##hears
##inations
##edy
thumbs
##itution
inland
##asters
stout
stable
stitched
whore
shatter
habits
##allow
##thia
bland
chime
lef
flushed
##raham
knights
##together
clin
clung
##earch
sauce
Inf
swoon
##ounding
trot
troops
conver
##ickle
gliding
slung
quant
preacher
straining
remorse
perple
adoles
partial
##plete
draft
marched
player
horrid
rounded
refri
frequ
invite
##ucle
laying
bestow
persons
United
faults
transm
##nerable
assist
solar
blindness
disappears
observe
fights
filth
##ification
potato
harmon
Else
captive
requires
punct
jumping
lambs
reflections
Pleasure
Below
timber
settles
settling
lowered
electricity
properly
soothe
Help
resistance
##locked
Clear
contrad
Holding
senseless
members
lucid
gratitude
laurel
beggar
appreci
fancies
mimic
numerous
Tuesday
correspond
Jerusalem
AN
Cer
Mic
Natures
Post
Sire
Ut
Waiting
bout
bapt
bids
crave
cape
fiss
fawn
fasc
hir
jumps
mars
mesh
noun
rape
##eav
##pa
##paper
##cat
##vi
##ester
##ete
##acre
##acity
##acular
stomp
static
##ader
##icop
heir
shudder
seams
sequence
##ioned
##umsy
alleys
chord
loaf
leisure
doomed
flocks
alert
almond
aluminum
plow
plank
canal
grid
gramm
swirl
constr
scant
scour
exting
handkerchief
glint
twine
##orts
everyday
Stars
Asia
afterwards
owner
silences
##teenth
appropri
vex
donkey
##ogy
minded
heavier
contem
contract
Show
shady
marbles
kindred
softness
suburbs
index
accomp
obli
##encies
footprints
actions
magical
furrow
bleeds
yea
Twenty
ceased
##annel
##mend
Maria
arriving
destination
taller
anti
gladness
sensual
salute
surviv
replaced
repeating
eagles
infinity
emerge
departed
astron
translated
lingering
Georg
national
confession
community
Darkness
Mountain
cultiv
fantastic
venge
pounding
tilted
elephants
chemical
terrified
Egyptian
soda
beetle
molec
##celain
glossy
disguise
supreme
Francisco
Court
convinced
Virtue
sovereign
Freedom
Sohrab
machinery
refriger
Bapt
Dun
Die
Dante
Fra
Gent
Gulf
Mat
Mill
Muses
Run
Sit
Shed
Warm
bot
bang
bait
dice
dough
dict
lou
latter
pisto
sher
tt
##point
##hop
##hair
##uk
##There
##vil
##vag
##vial
##Nor
##inist
##reats
##arian
##llis
stag
##adel
bellow
whither
whilst
##urry
##imal
sep
weighed
##char
##tha
##ando
blo
blaz
allows
nearest
##ackle
chast
chart
Thames
unus
##igan
##igger
graces
thereof
##icht
willows
amaz
wherefore
slay
nightfall
prone
twain
enlar
##blem
sunken
darken
earned
Sty
Begin
##pering
##ocked
keel
warn
waz
redeem
##aza
checked
Anc
standard
hoary
wallet
draught
untr
Seems
cared
impress
monk
metallic
##brows
fairer
discont
simpl
throbbing
tragedy
situation
solution
ladders
raising
illeg
chariot
misty
device
hillside
radi
scrape
India
ranks
turkey
strove
porcelain
##ological
sensation
Going
opportun
damage
avo
Smith
riddle
Quick
Quiet
sorts
brazen
crawls
request
foliage
mutual
cigar
reveals
cowboy
spells
reverence
Silver
negative
##racts
imperfect
texture
stockings
target
rippling
dwelt
Consider
ninety
lilacs
method
Wednes
##sthat
##ocracy
scholar
nipples
organs
sandwich
shawl
outstretched
courtyard
daisies
Raggedy
Dawn
Fell
Hun
Ira
Money
Sac
bac
bisc
fou
ga
ger
gul
gilt
gaunt
hose
lumber
mum
mists
maim
muffled
nu
pardon
wold
##dish
##lied
##gery
##tic
##TH
##How
##VE
##inence
##aters
##eded
##oria
##onge
thund
tool
##itious
##asis
##asse
stif
##stra
whine
##ooling
##lying
shal
##child
##andering
spires
likewise
chained
leav
##aki
##raft
##owned
unqu
##elles
aloof
saith
thereby
poppies
scient
scaff
amer
glinting
##ittens
coiled
prints
discl
##ensed
teaching
remembrance
snuff
##text
airpl
shouldst
Chap
warned
cleans
##phin
hollows
##pend
recently
coloured
eyebrows
visits
freck
indigo
joyful
repetition
stripes
parched
##raph
acting
magg
answering
solace
raisd
regions
Florid
groans
lawyer
Perfect
function
admired
postc
appearance
receives
losses
hunters
embroid
basin
collected
victims
Serpent
whistles
Feel
##glass
Turning
pupp
surrounding
Road
blasted
immortality
dismay
property
systems
Jean
ripple
Build
Besides
Hotel
puzzle
zeal
romantic
speckled
eclipse
obedience
Saviour
pyramid
acknowledge
comprehend
bicycle
lettuce
inevitable
anonymous
Johnson
cactus
translucent
Camelot
Jackson
Cy
Calm
Dust
Hus
Hark
Host
Haw
Los
Langu
Living
Nations
Pap
Ty
Wy
XI
cic
cert
cages
dares
diction
hind
hub
hinges
iii
jut
links
muff
pears
panes
puddle
tilt
wove
##aits
##bank
##uj
##cam
##AL
##ygen
##eras
##ari
##orter
##isms
##iti
##itory
##itating
##asd
##uttering
beaks
##seen
shots
reins
webs
sped
chords
Thine
Thick
dod
flaring
upl
plums
traced
arches
glam
slump
##ittee
coax
cray
##orting
quot
awaken
sunlit
wraps
headlights
veh
farmers
##ankind
heaving
Wherever
raining
steed
boyf
##henomen
computer
termin
expand
mounted
helicop
strips
attract
interview
signals
bites
unconscious
ghastly
praised
balloons
husk
unfin
verm
verge
penis
certainty
extinct
petty
wiser
flights
chestnut
spoons
iris
batht
Desert
cabbage
##rified
dissolves
ticking
wanderer
lingers
argue
recorded
rebel
shocked
satisfaction
dwind
bouquet
Woods
lodge
luxur
buffalo
permission
cerem
squeeze
domestic
transformed
boulders
dyed
constellations
picnic
purchase
Joseph
Buddha
hurricane
40
Av
Dor
Ep
Fancy
Mister
Parent
Suc
Trave
Van
Warr
aust
aye
avenue
baw
civ
dat
dame
diet
giddy
lain
lame
om
pairs
raf
sales
##dies
##gue
##uine
##whe
##IG
##Then
##vals
##ani
##itz
inqu
##ownd
##utable
stumps
onion
##verns
##lyph
reef
herb
##esses
atop
spacious
sodden
chasing
los
lev
clumsy
##avy
##ourn
manhood
sways
conven
evermore
covet
crashing
twins
##ptic
Form
strut
peeling
pebble
nevertheless
worldly
underfoot
Stay
desc
sweater
falln
mustard
veils
reduced
voc
seaweed
happily
##dened
beautifully
##ottled
drags
steals
countenance
artic
artific
catal
winters
realms
freight
courtes
famine
layer
decent
signific
bowers
solo
dressing
clouded
Trist
diving
dimension
boundary
purest
rubbing
calmly
flooded
wreaths
demands
cavern
slightest
maids
ignored
journal
captured
revealing
Harry
bulk
firmly
amidst
imperial
gnar
hymns
inspect
murderous
increasing
siren
absolutely
anxiety
Persian
adorned
##arciss
battles
enchant
warriors
collapsed
determined
##pheus
neglected
terrace
hammers
Whitman
24
Az
Bob
Coy
Est
Eli
Fred
Gall
Hair
Ire
Led
Mans
Naked
Pier
Rather
cot
gems
lure
licking
ment
nailed
nucle
pent
pitc
pushes
rake
sown
wert
wretch
##mod
##doms
##rat
##games
##uated
##Her
##ía
therap
##asions
##ettes
##aca
stumbled
##ala
whites
##urous
##imb
shrive
##ainty
rein
##this
##omegr
spears
##ummer
chop
china
leve
flank
flashed
##odied
nostal
clenched
brushing
##arked
amorous
exotic
comment
gosp
glen
slime
sliced
##osa
crook
crater
afloat
peers
foll
propped
remaining
snare
snug
waterfall
drugs
drooping
carto
passengers
veiled
partly
chewed
contempt
curs
humili
##peak
elms
deepening
##rieve
steer
summ
lively
glassy
Space
##spread
thrush
attitude
sandy
paras
parlor
##rapt
triple
closely
bowels
assumed
hurled
genes
raises
Flood
consume
flowered
##udded
chopped
##ambles
shutters
weeps
answerd
admir
appearing
expecting
pulsing
Lights
dwells
gender
cracking
privacy
braids
capture
Desire
exhib
cherished
hyster
reflecting
subjects
unreal
dismal
fleece
rhythms
mortals
Grandma
searched
clutching
greeting
phrases
sunsets
Merc
rattles
holiday
tourists
moisture
improve
vertical
Wayne
Watching
cluster
tidal
vegetable
occurred
assembled
tropical
explosion
braided
lava
clerk
intellectual
bewildered
fugitive
meteor
galaxy
Walter
territory
Gilgames
Laugh
scheme
Vietn
Moloch
explanation
molten
lefto
rafters
##omegran
Gilgamesh
BE
Bew
Certain
Civil
Doth
Fil
Flesh
Hast
Knight
Move
Mah
Milton
Ot
Pil
Pope
Side
Sign
Safe
Vir
XV
ape
bony
boring
banners
cin
cul
dainty
gaps
ker
ken
kite
laced
mak
math
pus
rung
rash
sift
vary
walt
##drop
##avery
##la
##gie
##hab
##uu
##cd
##falls
##VER
##ón
##UT
##anching
##ito
##otted
##see
##seus
heaped
healed
isolation
##amon
reel
weve
anal
annot
##roke
##anders
whee
chilly
Thousand
##ustomed
arent
nois
noses
outline
##olution
##ateg
##again
traps
ambit
smear
crim
boar
bobbing
quad
prem
pew
peeled
disin
disbel
wrung
Whenever
endeav
Beast
streak
hovers
restored
pastures
##ships
marve
burnished
serves
Spread
invited
Army
attain
parch
learns
discourse
warmed
Leg
movements
limited
assured
babe
incident
polite
genuine
rugs
languid
illness
builds
truths
sixth
cleaned
boundaries
doubts
harness
parks
stroll
Prot
salty
proudly
bitterness
bathing
crackling
particip
particles
experi
hosts
Harlem
pitched
Believe
timid
gutter
accepted
rebell
orchards
Jewish
Salvation
civilization
pedest
resolve
Falling
neatly
oblivious
softer
tyrant
##plicity
absorbed
peasant
semi
ornament
revelation
manifest
##ranean
scratching
lizard
encounter
screens
pennies
Almighty
crisis
23
Ari
Ba
Cause
Camp
Dance
Eat
Fif
Fame
Falls
Lib
Nap
Norm
Opp
Pure
Table
Winds
au
bour
dub
daring
fins
fathom
halt
lag
lining
mand
mol
mop
naturally
omn
pod
pist
rins
ruth
vist
wiz
##made
##ran
##houses
##cade
##win
##west
##wixt
##ja
##és
##rey
##arium
##anth
##itations
##eting
##acted
stored
stitch
stamped
beau
begged
##ston
##keep
##amer
hav
fraught
fronds
relic
##ilts
anth
blithe
spruce
##rily
soiled
christ
##elong
lob
levels
flip
##raged
##eming
plots
plunder
##ifes
canoe
suitc
abl
scall
hadst
##angling
glides
overnight
cocks
foil
Stre
Starr
blacks
emperor
appar
streaked
##aughtered
worker
drizz
Isn
reson
paste
##onesome
landsc
crev
stealth
##ibles
county
artists
soften
submer
expanse
amongst
evn
invol
##aneous
fairly
footed
jobs
confirm
beginnings
##print
polar
grandeur
rupt
mistakes
thicket
covert
despise
irony
defense
extinction
generic
construction
Const
gentleman
Glad
posts
conditions
ridges
bucks
buckets
punish
unwilling
frosty
magnol
pauses
nods
conceal
obscene
described
moods
affections
mossy
##embling
reminded
Snake
chimneys
##etti
Country
writers
occasional
dunes
dunge
oxygen
scorched
extravag
resemble
syllable
officer
vessels
steadfast
Center
##uerto
lodged
mantle
channels
coyote
VIII
swirling
fulfill
plunged
##aborate
champagne
ceaseless
tranquil
bereft
iridescent
alcohol
necklace
Wednesday
Bas
Bid
Bank
Dog
Dutch
Equ
Few
Fool
Grief
Iron
Ign
Lies
Laur
Pa
Pear
Sitting
Tar
Tenn
Trying
Vill
caged
crib
dime
dorm
gan
jagged
las
lint
mathe
nun
ps
panting
rous
rider
sam
trough
tile
zoo
##dust
##oken
##wo
##wife
##za
##zo
##IA
##vo
##inable
##escent
##anim
toils
##othing
##othes
stung
##irk
##urt
##urdy
lied
##verted
shaved
reap
weaves
##roads
dell
##andal
spade
##rious
##usk
chimes
flake
flares
##aka
outrage
unbl
unjust
clings
clicking
altogether
##avior
##igs
graph
##oped
abhor
amp
smother
glancing
slur
slam
loveliness
##ipes
coil
affl
pref
strained
stilled
Stud
Stream
afterward
drama
##uckoo
##pered
Orange
souven
shallows
skysc
buying
curses
surm
recomp
creaking
doorways
woodland
##ormed
retired
##ruit
playground
Alab
youngest
meanwhile
brightest
artif
##ocation
compared
terrors
goddam
##ugal
involved
Imper
Unlike
sadly
signed
signature
transf
simon
confidence
squad
incor
incess
mermaid
192
charges
Flower
Flowers
depos
consumed
praises
casts
smoky
devils
diag
wandring
groaning
Play
explore
##uddles
towels
Add
destro
banquet
shotgun
doubtful
expectation
approached
profile
villages
laun
uttered
Mothers
variety
severed
##emption
billion
poplar
pausing
epic
crystals
pursuit
blissful
translate
provided
##Whose
Barb
hawks
fleeing
protection
positive
patiently
mortar
inspired
princes
princess
routine
tortured
defeat
cooking
unclean
connected
Imaginary
ecstatic
tourist
Germany
depends
scrubbed
Knowledge
indifference
deserts
congreg
corridors
beetles
romance
tulip
marvelous
bolts
perceive
flattened
dominion
discipline
wavering
givn
drowsy
society
girlfriend
Department
video
##lymp
Shalott
Faustine
pistol
unfinished
gospel
Ball
Fal
Horse
Mess
Olymp
Puerto
Sorrow
Win
Wise
Zen
cable
ell
fay
files
fumes
fangs
hark
jay
kicking
licks
nude
noose
naming
oily
oval
panc
ram
rented
sib
tasting
tanks
##ieth
##rad
##rick
##groom
##giving
##cross
##OS
##xes
##15
##arine
stinking
##ici
##icts
##icians
##idden
haught
seet
blu
spind
spits
spines
soaring
oranges
##ongs
leaking
##cker
##odes
thistle
knit
knocks
##tos
##eller
alight
pledge
saus
Intern
trill
troop
ability
scattering
comic
coils
bob
pee
wayward
Whence
snails
owners
sleigh
carbon
lasts
Chin
nothingness
buys
fireworks
greatness
##appled
##phones
moonlit
Sever
Alb
Alt
catast
rocked
barley
Union
cords
limestone
uncles
blend
illum
regal
Floren
melon
consent
grazing
splits
leader
Abraham
wanders
windowsill
##rophe
##000
Poets
garment
administ
engra
messenger
advantage
ashore
complicated
brake
quarters
rotted
flashlight
emerging
lipstick
costume
croc
pursued
bulbs
include
vacuum
spleen
superior
cupped
Color
gutters
aimed
farthest
yelling
uneven
healthy
phantoms
performance
hooded
elders
types
drear
boredom
Mexican
Forever
clusters
Susan
profession
General
nickel
vulnerable
chapel
Grey
enchanted
puzzled
astonished
troph
Arabic
embarrassed
Shadows
aisle
aisles
circumstance
Alexander
cobwe
magnificent
myriad
Caesar
Thursday
grammar
skyscrap
Florence
50
Aqu
Author
Boys
Cru
Creat
Les
Lance
Main
Ru
Syl
Tu
Var
Vain
Wake
busted
cass
eb
eg
fuzz
lonesome
pits
races
ruddy
tel
tag
vote
wart
wield
##lars
##band
##burg
##oors
##rates
##AY
##IM
##OL
##His
##èn
##inine
##onian
##anke
toler
##itement
##lee
##aculate
stalled
##adas
whipped
heath
##amiliar
forks
shards
meals
##roc
chipped
chances
##estion
theyr
##olent
brack
broth
##agan
##opard
sug
moans
##feit
ampl
smold
##angles
glowed
coc
crashed
Ford
disorder
offspring
afterm
enduring
##mented
perfor
sleet
##weight
carpent
dreamer
appointed
checks
##before
keeper
reco
##ethat
untouched
##ruff
seriously
monuments
Somehow
fearing
Blake
refrain
independ
Image
preserve
trigger
##them
interm
circular
Lee
hopeful
actor
furrows
flecked
Everybody
Evening
smokes
understands
historical
mischief
oneself
studying
Indeed
weightless
vainly
traveler
shrinking
tenderly
strode
banana
precision
blossoming
queens
torto
tomato
masses
maples
Smo
unbear
##cript
billows
hostile
Charlie
emerges
cherries
Turned
Himself
gasoline
announce
provide
yielding
##isphere
escaping
difficulty
Columb
Moving
rebu
vinegar
conquest
olives
scorp
carnival
slippers
Temple
rifles
Central
pallid
clasped
enclosed
nursing
linked
magazines
ferns
instructions
Fortune
Shadow
##because
Despite
achieve
cosmos
##abbath
##ihil
twinkling
pupils
apparently
average
resurrect
oyster
chisel
succeed
tedious
gigantic
landlord
privilege
dynam
syntax
vengeance
bathtub
22
Ble
Bare
Billy
Cain
Foot
Gra
Gab
Lust
Mike
National
Pop
Pity
Poss
Rocks
Sen
Taking
Titan
Use
Vol
aug
bard
dab
ebb
gor
golf
gurg
lance
mong
pacing
rut
rind
rites
rival
sash
sult
tons
tapping
vit
yow
zig
##eas
##mir
##die
##ridge
##gon
##gia
##hin
##has
##uph
##wd
##IL
##Bl
##ED
##ena
##anas
thaw
thrive
##isse
##utation
##aco
beech
##stove
##oooo
##imo
shing
asc
mellow
##cep
reass
sewn
sequ
##roit
##uned
##unct
atoms
spout
##ribut
##apple
##umerable
soak
soles
loaves
league
flim
flatter
##ulars
##ulting
outdo
unique
clue
##olis
plaint
##avd
##ereal
##igent
Infin
swad
ponds
Heb
scold
scape
exclaim
aging
slapped
slammed
coach
prud
quench
##quoise
Forth
darkens
prost
headlong
Shell
##iverse
##onsense
##izer
Orpheus
shouldered
##ording
##anche
rightly
humor
receding
result
creeps
kinder
woodstove
steak
##clock
career
Alice
impression
catar
finite
barr
trivial
##their
circus
corpor
relatives
buses
incon
sonnet
genial
sycam
helping
raft
angelic
devouring
dawns
##uggish
diale
tennis
strait
unfamiliar
defence
neighbour
fruitful
studio
disappointment
halluc
Expl
traveller
ruby
proportion
plainly
swimmer
gentlemen
tightly
froze
sticking
salad
approaches
speechless
geography
gallant
excited
unwr
esteem
emergency
preparing
Silent
etched
Drink
##going
obliter
Break
Saturn
dismiss
tubes
perfumed
instantly
communion
symmet
stubble
bruises
haunts
identical
brilliance
##asmine
venom
wrinkles
whirlwind
steadily
##uzzle
hypnot
Richard
vegetables
nightmares
critic
placid
execution
citizen
prophecy
orphan
relentless
divorce
Juan
sundown
inscribed
heavnly
distinguish
sulph
opinion
upturned
Crispin
earthquake
labyrinth
Georgia
Iraq
Florida
Aire
Burn
Broken
Eag
Ext
Event
Germ
Hym
Homer
Lit
Mod
Meth
Maid
Pitt
ST
Southern
arous
bunk
based
cents
cured
cyl
fowl
gem
gym
gums
latt
oils
pest
pell
pork
pangs
rans
sab
sans
sapp
sizz
tam
tarn
tension
um
vin
yew
##aign
##boys
##post
##ril
##sen
##hn
##cies
##fare
##ALL
##IR
##yers
##Our
##One
##ée
##inse
##erie
##oure
toll
sturdy
beaches
##stood
frayed
##cell
reared
rehears
seag
select
##chair
hermit
anvil
##una
depl
degr
##thren
whel
blizz
spice
sponge
##riers
##apor
##uma
##esthe
flannel
##emen
alche
##olated
brooks
brisk
##aren
sauc
sucks
swive
poke
scab
whereof
Italy
arter
slaughtered
##ulled
twists
twitching
envelop
dayes
lookd
awaiting
pean
disable
foc
Myself
proves
snee
##psy
perse
carving
opaque
##iva
voic
Thence
contest
needing
happie
hums
guiding
recur
behavior
creates
kindled
disturbed
snowfl
impass
serving
starved
dropp
##oche
expans
Blow
refuses
refusing
frequent
##uthors
##ippers
mirage
idol
momentary
preserved
elegy
breakers
obtain
shadowed
discer
patron
assign
incred
incomp
##prise
##isoned
Cliff
possibilities
supple
cleaning
splitting
planks
Early
crabs
filld
choices
shuts
continually
studies
observed
##0000
freshly
Prom
Pride
eighth
salv
advancing
Nights
Emp
Lightning
unbroken
Sundays
excitement
collective
cabinet
produced
hedges
guardian
crops
concealed
grandmothers
learnt
vacation
firmament
negro
eyelashes
ambul
majestic
bearded
Teach
robin
inspire
tremulous
threatened
totally
uneasy
scraping
rattled
Dreams
unfolding
brooding
Japan
talent
multiple
symbols
tribute
Cherub
pilgrimage
fishermen
exploding
ultimate
circumstances
##IDS
Driving
Achilles
comrades
bastard
churches
baffled
suburban
deliberate
reluctant
hapless
Soldiers
accompan
scaffold
courtesy
Tristram
enchantment
Coyote
Laura
Band
Crow
Caught
Echo
Fiend
Gay
Huds
Ide
Judge
Maker
Rod
Rog
Riding
Running
Som
Shes
Tong
Tears
Ve
aura
ba
bale
binds
dappled
estr
ego
fier
fickle
gore
gib
gaping
hight
hack
jade
mottled
vaul
waken
zones
##md
##mble
##bt
##pie
##him
##fo
##xim
##UR
##edes
toad
##ittering
inert
##acies
##icals
##storm
shag
shreds
##cht
washes
blouse
spangled
##riages
sooth
orbit
chuck
chilled
chrome
lobby
flint
##rah
##ulates
##ells
clash
##athan
sagging
grotes
##ooking
manic
manly
##irect
amazing
smack
handles
glut
wouldst
coals
prays
qui
previous
peaches
##enses
snatched
watered
thoughtful
##ubber
passive
Chaos
emph
##beit
##plend
hearse
surve
hoard
guided
Shut
recalls
resid
walled
creak
distracted
Sevent
burrow
seraph
starlings
expense
lists
##armed
Blues
Real
finest
intest
invis
##soever
##ucing
minister
presented
trif
erase
Uns
transp
##ooms
Need
actors
springing
hurrying
marking
blindly
countryside
illust
eased
strongest
pickup
dearly
##overn
insurance
##atively
Plato
killer
figured
Adams
defiance
##archy
posture
tighter
urgent
urban
sensible
salvation
torches
oppress
univers
sweaty
classic
horizons
maidens
replid
lusty
##load
separated
paj
visitors
struggles
orient
charmed
combat
timeless
foreheads
learnd
Guard
lacking
pretended
enjoyed
mockery
altars
yelled
cooled
temperature
hammered
Venice
deceive
reigns
connection
Evil
upstream
insisted
gaudy
Jersey
reckless
lichen
vowels
econom
wrestling
suspic
forsaken
summoned
Triumph
industry
Learn
responsible
nipple
definition
automatic
fertile
##figured
migration
reproach
nimble
restraint
temporary
prosper
fingernails
avenues
walnut
quartz
honeys
appropriate
boyfriend
artificial
gnarled
Ireland
aftermath
zigz
Aph
AIDS
Bac
Bott
Batt
Cant
Celestial
Dim
Daughter
Elys
Fat
Fur
Fount
Gave
IX
Jord
Lion
Lying
Lords
Proud
SP
Sigh
WH
bor
banging
eth
els
fals
hust
hacked
ire
jasmine
loo
pang
pals
paces
rye
sipping
vic
vod
wreat
##ez
##iñ
##avers
##gone
##hot
##uity
##CH
##arant
##onia
##enet
thri
inmost
##asant
##asms
##iron
liv
heather
##illas
sham
sharing
anat
wasting
##rob
defect
##thorn
##geant
spared
sob
chanting
Thing
lect
leash
flin
fluff
flax
##odge
yourselves
unear
clime
clipped
##olina
brides
branching
##ateful
##ifix
mocked
Heard
everg
whereon
ark
glaze
slu
gren
cocked
twitch
bog
quill
##ansas
desolation
justly
treacher
carve
carav
Change
warp
adding
contents
sweetheart
anothers
##dening
highly
resembling
wallpaper
pleading
retain
players
foundation
starve
fearless
dusted
meter
accents
mineral
##ounces
Univers
satell
simplicity
##headed
throb
dresser
regrets
wonted
wrongs
climate
Grass
presses
Cannot
unforg
training
delighted
shorts
Kingdom
turquoise
sharply
potential
chests
occurs
flooding
sensitive
spoils
spoiled
launch
dews
caverns
numbered
swelled
camps
##ference
replace
complaint
belonging
belonged
embraces
Queens
Turns
designs
strawberry
flickers
cocktail
orchids
impercept
perfumes
bubbling
Creatures
delivery
spectral
extends
cycle
tapest
##aunted
preferred
shrieking
beware
venture
terrifying
##innamon
hauled
mechanical
philosopher
literally
principle
Awake
cosmic
obedient
Kenned
mosquito
Frost
##between
Straight
fatigue
texts
Sorry
oblique
refrigerator
dictionary
pitcher
disbelief
telesc
AM
Bread
Bron
Books
Coc
Coun
Hal
Hills
Kh
Laz
Lamb
Mouth
Oak
Por
Rh
Ram
Sabbath
Ta
Tay
Walt
Woe
cors
ferv
gear
hous
hove
hating
kil
kicks
lapping
mi
mit
mire
mature
moose
nape
nuns
pac
pam
pail
pomegran
sere
sacks
troll
vales
waning
yarn
##matic
##iking
##iams
##lam
##bi
##bare
##obs
##pine
##rary
##rating
##rict
##cure
##corn
##coming
##were
##ILL
##Le
##vable
theft
##oufl
##oni
##asper
##uting
##acinth
stoops
stitches
##iche
##stead
##urora
##amy
##ima
##imer
shave
fron
fringe
##ceeds
##ceeding
blight
##river
chasm
Thirty
leak
flats
theyd
upset
unth
alab
##oli
plush
##ava
##iguous
themes
intoxic
tru
usur
converse
context
Hearts
##urnal
scald
scaven
exiled
smash
agg
slapping
overth
overgrown
crammed
breeds
twent
imitation
offices
Theyre
snout
snapping
treated
droop
pert
silt
Beach
##awd
Cho
Chief
Chicken
##owering
waft
adj
sleepers
Allen
contours
contented
cursing
surgery
hump
hoe
guise
Short
Sharp
Isa
resent
results
elaborate
hardened
distract
Seek
compost
##upon
rocket
Blown
Rece
evapor
##mann
inviting
speaker
miranda
minst
attach
decade
##licted
discord
confer
##ahs
assass
hanged
uncont
rugged
rais
Everywhere
graze
drawings
##until
largest
suffice
diary
Plain
histories
##zzzz
Point
equip
garg
garlic
admiring
sinister
eternally
pinched
Enter
swallowing
pulses
##rupted
demons
caul
Empty
threaded
pleasd
classes
mixing
westward
##woods
horned
matted
matches
repeats
affairs
expert
whistled
epis
ravine
recognition
calc
conviction
##izza
##While
witnessed
feroc
revolving
triumphs
mortis
tiptoe
soothing
oddly
gowns
identify
Babylon
deceit
Anything
Museum
Salv
container
Actions
##ulsion
mingle
terrific
skeletons
weighs
Impossible
stabbed
memorial
sculpture
rescued
professor
corruption
surgeon
Tremb
lunar
diminished
industrial
swirls
nymphs
sprout
concerns
manifold
boulder
offend
Robinson
ascending
Seemed
fortunes
available
eloquence
Broadway
neutral
fossil
casket
unusual
thunders
Language
ceremony
annotations
ambitious
landscapes
haughty
unbearable
flimsy
Hudson
29
Cool
Ent
Fit
Hay
Harm
Hours
Lets
Loud
Occ
Py
Pick
Psy
Salt
Yanke
cone
cinder
dow
dir
ditches
firing
gou
gel
gains
garn
lice
lyn
mout
mills
ole
oats
pumps
phenomen
puddles
rave
rouse
rhet
tig
tuck
taps
wins
wanna
##ees
##eches
##mel
##gart
##some
##hift
##would
##ki
##Will
##24
##eration
##nda
##aro
##onis
##enix
##enna
thrift
tod
##owa
##leans
##otive
stor
stool
stamps
##iches
beards
##sts
lik
##idious
##amen
shar
shrew
shattering
shifted
havent
rept
reeling
##ilion
sez
wasp
##robe
deft
##apable
alle
sobs
##esting
##ieving
##rav
##told
##emn
whos
wholes
unhe
Whis
##olo
bramble
roars
sax
##opes
##auld
abuse
cones
smud
arched
glor
coated
crotch
bonds
prescri
sunbe
afterlife
Shepher
endured
##weet
passenger
lasted
Chorus
emblem
bodys
warms
skyline
adrift
cheering
curving
surpass
holl
readers
Shr
recite
rainbows
deeps
mouthful
summons
retre
Seb
brightly
imposs
##mbl
compar
Spr
barge
spirals
##spass
##bridge
infants
accustomed
thrall
presents
decree
coron
discarded
confident
patio
patrol
Lead
squinting
felled
mattered
ladys
Meet
devoted
explains
Christabel
Marg
vanqu
extent
pett
turbul
modesty
potent
planting
pinn
wrecked
Enable
medium
meditation
loosely
innumerable
mourners
damaged
aval
ridden
unbel
sparkles
survives
replies
journeys
muttering
quarry
blocked
volumes
##Into
lampl
##izzie
orchid
grieving
grips
halves
farmhouse
Listening
clutched
celebration
##aunts
##hemes
bridal
pumping
ancestral
Middle
tilting
Repe
stooped
muscular
groups
gradual
diseases
officers
loosed
withering
reckoning
bugles
wreckage
intelligent
darting
squeezed
jerk
occupied
knuckle
canyons
festival
tropic
lanterns
Despair
elderly
architect
eclips
ardent
##oscope
relationship
hazel
Large
adventure
Voices
groove
Detroit
bounty
orchestra
crippled
daffodils
Tartar
shapeless
unimag
marshes
contempor
survivors
airplane
austere
sausage
Hebrew
26
Buff
Burning
Birth
Foe
FOR
Gather
Ground
Gates
Hann
Lot
Mere
Matt
Miles
Names
Nancy
Os
Pot
Pill
Rou
Rising
Vert
Ward
authors
bide
bake
bays
dum
dross
dips
dipping
funk
fizz
fitted
hitting
hoop
huts
koud
maw
nasty
navel
och
paced
sable
tart
##equ
##iond
##iations
##bread
##pour
##run
##gies
##holes
##crow
##wre
##wall
##Are
##ya
##yll
##viously
##OP
##ère
##atches
##orth
token
##itic
integr
##owls
##omon
stress
##ados
##adium
##standing
whores
livd
Ther
heaves
##imming
rearr
sembl
heres
##unc
##inding
blunder
blushing
spawn
allig
chip
##elope
dole
flared
sheaves
##ureau
outc
clang
clip
clicks
clubs
alarms
plumb
plug
bray
##abul
##abby
roared
##igen
swayed
tracing
scary
exal
knowst
agent
glued
slavery
lightness
##oser
brethren
daybreak
quilt
sunb
underworld
Stat
childs
##ivere
dram
permit
perception
cargo
##play
dreamy
##owered
belts
##ungent
adop
advert
redemption
homeward
##oglyph
streaks
deathless
Answ
humility
drivers
bedside
colony
margins
colder
seren
committee
##upiter
mounting
visiting
Northern
finer
indoors
member
armour
clearer
Ark
##yme
triangle
erotic
Universe
fewer
incom
##tended
floorboards
Trust
ills
register
Williams
motel
insists
immig
immaculate
Plat
Plan
explode
clothe
Scots
Canada
differently
weariness
hallways
palp
garlands
##fords
prett
fixt
urine
medical
meaningless
pillar
approve
wedge
demanding
democracy
Smoke
riders
horizont
camel
practical
surprising
collecting
expressed
volu
victorious
mortality
separation
embracing
emerged
juke
##ennial
Highlight
sells
conceived
bulging
renown
blasts
##etheless
dismant
fondly
boarded
waxed
##worth
robot
unmo
triumphant
bridegroom
Coast
spectacle
Passion
##parents
vertue
benign
whirlp
reports
##iosity
Magic
Palace
absorb
squirrels
literature
Milk
forsake
principal
contemplation
critics
scholars
tribal
trampled
Bedivere
socket
sockets
immediate
unnamed
interrupted
offended
caution
mosquitoes
##ragon
unfurled
Phoe
Scarce
Ladies
downstairs
silhouette
peacock
Gentle
discontent
opportunity
wolde
maggots
nostalgia
suitcase
magnolia
Kennedy
koude
28
Ave
Ages
Bus
Cad
Cyn
Fan
Fill
Food
Fine
Filled
Firm
Grave
Hit
Holly
Lor
Line
Laws
Lizzie
Nile
Pas
Pict
Purs
Sa
Sapp
Saints
Wars
aunts
bib
cunt
dank
data
durst
era
fuse
gong
hens
hinge
muck
maz
nit
packs
tarp
vi
##dest
##oard
##rin
##rown
##rays
##har
##had
##ui
##uber
##ulet
##course
##ION
##SA
##jar
##éd
##hent
##erity
##ingers
##atra
thud
##isa
##isen
##itant
stalls
##icc
##irling
##struct
whor
whips
##uration
rend
reek
##ilted
seep
##unci
##essor
blasp
spiked
##umd
chrys
##rouds
looms
lever
leagues
flaws
##ulus
unison
ungr
alg
##igree
##agu
swoop
wills
poppy
abode
feign
schemes
cometh
glanced
slices
sluggish
##ipers
crates
crane
breach
boon
longs
sunflower
strapped
imb
##answ
desir
tremend
drapes
blackbirds
carriage
passages
apply
homely
singers
contro
controlled
Anna
happiest
sawdust
hoar
guides
raindrops
secre
kindle
riverbank
Send
Seen
Albert
submit
commands
reflex
indec
invade
##uces
Arts
accused
idly
thrum
attent
sandals
musicians
closest
obt
trips
transcend
Brad
assault
languish
crownd
consumm
graff
drawers
insom
insides
lithe
explaining
ringed
tenor
Grant
Marie
vanishes
Pole
bulls
Conc
Connect
antenna
##known
leng
urged
existing
legal
comforted
electrical
camoufl
embers
##ylum
tuned
virtuous
##iii
valu
##olete
Worlds
affirm
Goodbye
magnetic
Feeling
embraced
epit
cherish
calves
bayon
widows
widening
Beloved
recalled
nodded
conceive
thankful
stiffened
glimps
poisonous
Breathe
trickle
Otherwise
aiming
gripped
bidding
reminder
titles
infinitely
Snark
henceforth
primary
berry
##minous
Edward
performed
occasionally
fantasies
scenery
chiefly
Dreaming
suggested
typew
materials
vibration
tempted
official
aspir
Polish
loosen
arcs
shovels
puffed
benches
multiply
swarming
acquaint
wrestle
Commun
racket
suspicious
injured
napkins
dialogue
cube
gazes
optim
teenage
persistent
fisherman
majority
Honour
sprawled
tavern
cautious
condemned
glacier
Murm
##ufact
Fields
Voice
shuffle
splintered
##iiiiiiii
hieroglyph
sketch
parrot
geometry
Jacob
Suppose
qualities
policeman
siege
Michel
bloated
terminal
parchment
goddamn
False
administration
Gabriel
Eventually
Bir
Bull
Balt
Bern
Cond
Carp
Dame
Dub
Emer
Ful
Faces
Gle
Giant
Hund
Honey
Kill
Mach
Pret
Rivers
Spl
Serv
Soph
Won
YOU
bouncing
cel
cater
cinnamon
dul
domes
fatt
filed
gamb
gait
gifted
jub
lacks
lurch
lashed
mower
mumbling
oath
oclock
rumbling
si
sut
scept
tund
wra
wick
wade
yore
##mith
##bury
##pen
##rils
##gil
##gian
##ser
##hound
##haust
##fit
##fires
##war
##yst
##HT
##Why
##hew
##ati
##atisf
##orable
thim
threats
inse
inmates
##asps
##oward
##uttered
##icuous
##stream
##sell
whiter
##ido
heated
forked
##enthe
shorn
ascent
seiz
seaw
anem
wasps
##rops
##roph
##unce
soph
chrom
chaff
##antine
leaped
flanks
##odies
worries
##ulted
upwards
butto
unbe
unset
##elli
alway
plaid
brushes
cance
manufact
suited
swine
willed
scur
scum
scope
arbit
slash
nightg
cocon
skills
skipping
breeding
enlight
howls
##ortex
##quets
prepar
strat
disl
##ounted
wring
foaming
Myr
prolong
program
acre
teaches
##issance
tresses
drains
perished
silks
caring
##placed
makeup
passport
birches
Noon
veined
##ggles
chess
##herent
fireplace
heaved
conturb
paints
##phia
##ysis
drips
Wherefore
guarant
fores
Whole
recess
resigned
kindling
coldly
musing
Dean
Defe
Seed
Heres
impact
fingered
sermon
armd
persim
parish
errors
transfer
corp
lowest
simult
activ
assure
traitor
dividing
consolation
dearer
##overing
##reshing
supplies
prior
insight
shoved
suffers
dawning
littered
groom
grocer
dimly
frontier
Scr
crazed
misunder
towering
choking
defined
labours
neighbours
delightful
factories
##obi
Exc
rubs
shrubs
largely
banish
deter
feathery
nesting
pageant
drowns
wedged
published
avoc
irreg
classroom
delicately
surviving
location
##ussed
Crown
Nevertheless
lustrous
Yeah
muttered
glitters
collects
##oleum
Charlot
guarded
directed
hydro
surrounds
lingered
conceit
glimmering
witnesses
hemisphere
describes
description
audible
protected
fluent
axis
ripen
unending
Called
dangers
Clean
willingly
bridle
Evn
tilts
appeal
shrieks
temptation
##hension
contrary
depending
rods
lurk
license
Magn
permitted
nursed
psychic
membrane
inexplic
legends
laurels
lavish
crucifix
According
remarkable
conclusion
Darling
subdue
##essee
Odys
unspoken
scratches
illuminated
Majesty
shuffling
comrade
perilous
tasks
rosary
forbear
concerned
shredded
parrots
CHOR
sinew
theatre
grasshopper
Royal
frenzy
Jefferson
Baptist
sheriff
##adelphia
slumped
attractive
Parents
##arcissus
ablaze
mathemat
tortoise
ambulance
honeysuckle
Aphrod
tremendous
irregular
Charlotte
45
Ale
Ast
BO
Cra
Creek
Cupid
Dost
Ell
Eros
Hir
Hide
Holl
Il
Nick
Pine
Roses
Sel
Trou
aint
budding
bacon
cum
categ
eke
eel
eels
fable
fiber
goo
hugged
huh
jugg
lum
nom
nook
nigger
nonsense
ov
ply
pry
pays
pony
pads
pudding
ranc
rinse
sane
sifting
taped
woof
yel
##mus
##marks
##des
##iots
##pents
##rists
##rums
##nia
##gence
##tled
##tte
##uy
##uan
##upe
##cap
##AP
##Some
##Yet
##URE
##ouri
##esa
##arter
##itled
##otle
##eters
##etts
##acent
##acting
##acement
##icular
##sting
whiff
##ami
##oond
haply
aske
ashen
react
##ilant
seest
noted
anthem
##rored
##unte
deity
blister
sperm
chandel
lewd
flit
flirt
##ephy
##uster
##oodle
unve
unacc
##istle
plent
grub
##agus
mango
sworn
popped
convert
scents
scoop
scandal
aggress
downhill
glade
sloth
##osaur
criss
cramped
enig
afl
##quered
preach
impe
imitate
pea
peek
dischar
heartbeat
darkling
prol
Stands
##ometer
tease
treads
endures
##rency
speeding
Champ
##bean
Athen
Sho
shaded
recre
##embered
plead
distinction
steering
waiter
waitress
summit
Sex
Sees
fullness
##amples
meanings
fingering
monkeys
horrors
##ieties
compelled
commend
commotion
visage
refus
barrier
courses
formd
parl
##rapnel
erst
transgress
joins
##jected
relate
related
patent
throated
fours
apric
marker
##bbly
dogwood
tinted
bodily
quicks
quicker
division
gravy
flowery
gardener
forgetfulness
castles
smoothed
delusion
husks
fastened
crafts
misfort
verbs
##strich
##struck
defer
define
penit
scarves
obsolete
extension
funn
tallest
lotus
Works
shrines
shrinks
Didn
equals
turtles
models
##coal
gleamed
##ypse
strengthen
entert
receiving
powdered
spokes
massacre
denial
cameras
Philos
complaints
practically
practicing
Carib
poplars
affair
lapse
##guing
Keats
departing
epiph
cherub
astray
struggled
width
mildew
offerings
thorny
checking
gutted
##ophone
railing
utterance
scribbled
conquered
soothed
ripened
ripening
##araoh
feverish
##audel
primitive
rumor
moaned
pumped
pencils
##ARD
attempts
European
somber
predict
Philadelphia
bugle
Secret
Russia
pilgrims
Return
Bellman
ooze
assembly
concentration
interpre
prevail
perchance
unnatural
trenches
reclaim
constellation
Romans
niggers
Reflect
condemn
discovery
divorced
lizards
resurrection
screech
anticipation
precipice
Timor
athwart
scrawled
globes
myrtle
dispersed
education
merchant
tractor
sentimental
underside
Innoc
abruptly
measuring
Happiness
Souls
##ocalypse
delirium
cicadas
nuclear
Vietnam
varying
relics
dungeon
Tennessee
psalm
Alabama
Germans
vinyl
vodka
unearth
alabaster
CHORUS
35
Agn
Bon
Ban
Bang
Beth
Brought
Cass
Cott
Cape
Duck
Fed
Fight
Fab
Flight
Gro
Horn
Iowa
Jupiter
LA
Lat
Lone
Nation
Ow
ON
Omn
Ovid
Pin
Pon
RE
Sep
Sup
Tyr
Verm
Wife
Yael
auction
bash
biol
caked
dit
dred
drench
erupt
gears
ghet
hipp
hired
housed
ich
iced
icon
jets
kern
loops
mons
mug
mason
ominous
pas
pies
pungent
rus
rud
riff
raced
racks
tat
tack
tant
wired
wrench
##eb
##mong
##mos
##las
##bear
##oqu
##oque
##rals
##rusted
##nge
##nap
##gets
##ti
##hist
##hings
##ugh
##face
##fruit
##yng
##kill
##ji
##inating
##onous
##itous
##omo
##utive
stutter
studded
##icut
##icial
bead
##iry
##ali
##alus
##urer
lipped
##idal
##idel
forge
shant
shivers
sharks
shameless
shrouds
##unted
dee
##than
blistered
spied
spikes
##umption
nephe
##eluj
##esthetic
leopard
##rails
##odiac
##ulk
sheath
unread
unsc
unrest
unheard
clan
altered
brakes
roaming
##opl
##asso
poking
trading
truce
##ndered
##inkled
scores
smote
##imely
gover
##angular
glaring
slo
slicing
lovelier
crank
envious
longest
##atherine
quenched
sunless
aches
Asian
##ffable
teeming
remnant
treason
watering
Sole
##plant
spending
admon
reduce
cheat
cheers
seaward
##appers
curiosity
Athens
foretold
highways
plea
##ruly
##fection
purer
compose
##awny
wildflowers
mounts
Reb
Reve
Revol
refined
startle
infancy
infernal
Arg
mirrored
striving
decayed
parado
interst
interrog
Unc
watchful
birdsong
corks
incarn
hurl
beset
grandparents
uncouth
Clar
Class
blem
tablecloth
crowding
grabbing
motto
shoal
devast
devise
splashing
suffoc
##white
literal
groping
groaned
dimensions
Becomes
figur
Adonis
rooftops
doubled
fruitless
##ursed
extrem
##obile
daisy
palaces
shrunken
admiration
Conv
spright
##Though
Glass
odors
occasions
hasty
wrecks
porches
review
weaker
##chet
trusted
Smile
camels
buckle
unsure
luster
hollowed
punished
purposes
quarrel
##holding
experiment
declared
##rolling
boldly
network
ravaged
crystall
packing
puppy
encirc
convince
ethereal
lifeless
testing
dispute
strawberries
jackets
obscured
arguments
trailer
toothp
versions
Breath
eggshell
##racting
tenth
necessarily
frightening
fluorescent
foxes
travelers
Remembering
Gerald
spectacular
yells
whirls
organized
##avering
staircase
burdened
issues
suggests
dregs
nineteenth
dishon
glisten
##igrants
sync
loosened
##ulsive
puffs
weighing
fainting
Waters
lamentation
seemingly
brimming
ensl
psychiat
astonishment
gusts
trodden
shafts
peasants
collapsing
explosions
hoofs
ruled
briar
gasping
extremely
Sentence
cadence
ascends
overflow
melodious
arrested
internal
Immortal
Daniel
##AAAA
choosing
flavor
welcomed
Witness
sterile
Catholic
stanza
extinguished
molecules
helicopter
cartoon
leftover
drizzle
carpenter
scorpion
sultry
dialect
symmetry
blizzard
highth
grotesque
Sebast
lamplight
Hollywood
nightgown
Aud
Bent
Bush
Ez
Gord
Gives
Govern
Ith
Jones
Kent
Kne
Kenn
Kansas
Maine
Mankind
Naz
Pay
Sul
Sick
Tall
Tony
Vinc
Want
cute
cuff
cyn
cables
cuffs
dé
dine
dune
ero
fung
hord
hank
hitch
jing
kh
mow
mul
mates
nick
oat
pite
pension
raped
ruffled
tv
tak
tact
tugged
ul
veter
wig
wage
wavy
##don
##iors
##lim
##range
##rams
##rament
##nants
##could
##folk
##yde
##via
##Was
##De
##Un
##remes
##oras
##only
topped
##aser
##othered
##uto
stages
##icer
##icans
beget
beaded
##still
whining
##amin
##imon
frig
fringed
##celer
##ilian
seab
##chus
herit
##rock
##rospect
##unction
bluff
spong
neath
##acker
chattering
churning
loam
loins
lemons
flux
flawed
uphill
unnot
##oling
##oled
##igence
sag
saun
##agging
swain
tram
amph
##achus
exult
smudge
downpour
handwr
##angers
sliver
slither
##reeks
skid
crate
cranes
crumble
crumbled
brew
disag
offence
writh
Stiff
##omething
teac
##issa
remin
thyme
Order
passers
##anched
vend
##ggling
Front
adult
containing
painters
beautys
Shield
pastoral
elastic
hardest
distraction
woodpe
##ibal
Alan
wilde
yearn
metals
Ready
freak
barber
invitation
##brid
Arctic
accuse
accurate
thrashing
sandstone
presume
parad
makeshift
##ounge
relations
confetti
Leon
yellowed
assert
flea
##proof
markets
cloudless
Trump
bleating
colle
charcoal
divides
entangled
insat
devices
##whose
murders
Scott
crag
craving
scrim
viewed
labouring
destined
continual
vanilla
worthless
Looks
ranch
generally
bulldo
cooler
admitted
Conce
antiqu
filter
stroked
authent
candid
sinful
breadth
millenn
clothesline
Underneath
##hov
sensed
cupboard
mourned
wedded
sexy
wheeling
sparkle
mixt
varied
council
mystical
cheekbones
barks
Angeles
Angelic
mutter
matching
volunte
Common
magnet
##etera
nether
Turner
costly
convention
annihil
recalling
masquer
stalking
189
187
negot
barns
enjoying
Check
Madam
##IND
gnats
robbed
symph
reminding
threatening
Appro
Babe
rejoicing
Knock
##aunce
unequ
shimmers
rumm
particularly
Mercy
Write
holiness
hovered
Republic
vapour
vapours
oxen
fabulous
plumage
Company
##ART
insistence
basketball
resolved
Person
##ESS
unlikely
tufts
clustered
applied
mercury
tyranny
Lucy
nursery
stranded
benevol
refugees
injury
contemplate
Relig
portraits
interpret
Collect
disguised
Jimmy
Martin
sewer
Especially
strictly
Purple
Prophet
pyramids
acknowled
apologize
couples
downstream
mushrooms
awakening
intimacy
nudity
arrogance
helmets
simplest
##children
jutting
vehicles
##IGHT
Pilgr
vista
Creator
ebony
invisibly
pajamas
Jordan
wreathed
Salvador
mouthed
tigers
##garten
pettico
avalanche
ochre
horizontal
conturbat
Aj
Bishop
Baudel
Der
Dra
Eating
Farm
Gosp
Hosp
IS
Jos
Ky
Len
Lut
Laid
Mons
NE
Native
Number
Om
Pit
Pow
Paper
Raven
Sem
Sail
Vers
Viol
Wi
Wide
Wings
awn
aster
bared
braw
budd
cue
caw
dick
dented
drest
fated
gab
gush
hamb
jost
joc
lang
mown
mau
mah
max
mules
natives
nicholas
pion
pout
pops
paved
rife
rills
rational
sulf
sieve
sarc
tut
tint
taint
tawny
vint
varn
wow
wight
xxx
yolk
##ely
##even
##mun
##maker
##dream
##len
##lap
##okes
##pole
##race
##rich
##craft
##worm
##warm
##zona
##vail
##OT
##Don
##ío
##heve
##hemer
##rec
##atus
##esis
##around
thwart
##omfort
##ghan
##ghast
##otence
##utations
stings
stocks
stagger
stadium
beige
##store
##step
##stop
##stage
##sea
whan
whate
heft
isles
##amorph
##oore
shorter
shrapnel
asylum
fry
fray
##cending
reapp
##change
herring
##oresc
blamed
spike
solic
neur
##usp
##ussing
cha
chronic
looming
Thin
dope
flound
theyll
butts
unic
unpl
clink
clamber
##agogue
thereon
##oute
abject
abiding
conge
mocks
movd
scoff
whereas
exagger
Itself
aroma
gobl
handc
slush
slug
lighthouse
overd
##osity
cobb
coinc
##ptions
##ortions
quell
quake
strap
peered
wrapping
Staring
acac
deserves
tended
##oughs
drones
mayor
##izable
fallow
emotions
warmer
warped
apprent
##reading
vocal
cleave
heaviness
currency
soundless
humbly
recom
resort
reserve
elk
creating
creases
marches
district
##rug
Ali
founded
compound
##amese
midday
windowp
##ugoo
##roned
Reading
evolution
indign
indisc
##aneously
minus
ministers
closets
##lication
paraly
lowers
confound
##iov
assoc
assigned
flecks
##tending
illusions
depression
melons
##aska
##Their
misses
bottoms
##anni
colorless
immeas
leafless
##eady
miser
misplaced
Adv
defy
director
weights
wisp
##Than
##Through
hateful
engaged
violins
##holy
questioned
Enc
Enem
##without
publ
Elvis
riddled
comforts
##achers
crackle
##ographic
Carolina
Yeats
billow
pitying
valiant
production
spelling
sheltered
scornful
juices
ravens
reverber
##borne
tickets
announced
straws
keyboard
included
importance
Monarch
Accept
debate
steeple
tentative
grieved
masked
wealthy
Delight
Speaking
displays
fanned
nonetheless
Tender
Creation
Created
stocking
counterp
tarry
tendrils
tempered
weedy
cookies
Anyone
eldest
pumpkin
desperately
##ribute
exhaustion
Content
appease
hummingbird
aspen
selfe
Britain
chemistry
reckon
sneak
Wilderness
hauling
sculpted
vaguely
treatment
tidy
tidings
dazzled
tyrants
conjure
zebra
gossamer
Solomon
pissed
slimy
employed
Blessed
ornaments
microphone
suggestion
umbrellas
Thoughts
Strike
beggars
Darwin
exploded
sprinkled
prophets
Reader
galloping
hazard
squatting
navig
overflowing
submission
melodies
arrangement
Austral
Galile
Valent
fertil
mobile
imprisoned
document
mangled
ineffable
staggered
sanctuary
commerce
Tempter
Freud
hallowed
Professor
Sarah
dandelions
Carlos
fissures
bellowing
sepulch
amazement
geranium
maimed
postcard
embroidered
Certainly
criminal
havoc
seething
sycamore
sapphire
shaggy
elses
rhetoric
Margaret
Connecticut
Pretty
##elujah
heritage
Baudelaire
31
Ain
Ara
Aurora
Bone
Bound
Bud
Cow
Cos
Dig
Daph
FR
Fut
Gau
Gene
Grew
Given
Giov
Hearing
Iv
JO
Jen
Jun
Lil
Lucky
Lifes
Mau
Numbers
Nicholas
Pad
Pic
Press
Rus
Room
Sense
Tit
Tot
View
Wil
Waves
Wandering
aims
bureau
cis
cinders
daw
duct
dagger
feral
gon
gales
gushing
hilt
jig
kale
kins
lank
ny
nause
oiled
pish
pix
pried
ponies
pizza
rips
rages
ranged
riven
saves
tether
vamp
wines
wiles
wares
yog
##every
##ends
##burn
##pin
##hat
##cian
##fill
##front
##vn
##xious
##jan
##én
##hea
##inths
##ingly
##orant
##onym
threes
##iser
##itas
ingen
##leine
##utty
sta
staid
stinks
beaver
beacon
##alia
##ida
heirs
isolated
thatch
shocks
haf
frust
meats
##ilus
##ilence
##chance
notions
anec
##rost
decked
##things
##inden
##andered
blad
bluish
spire
spitting
spurs
##rix
allowing
oracle
chide
chants
chops
chilling
##asted
##anthem
flings
noct
unaf
unlock
unansw
##ello
clams
clawed
##abouts
grac
poise
popping
abdom
aboard
conso
amuse
amused
exits
knowest
smugg
downcast
handled
overs
windless
quail
prest
dislike
darkly
prover
proff
prostrate
Stir
Stink
Station
acceler
##othy
tee
remnants
##oster
silenced
Sov
Began
womens
Orleans
mustache
adul
adds
reds
homeland
##ogan
##ogues
bloods
bloodied
surging
Shine
recoil
resound
research
##shad
pleases
retic
Deaf
snowing
giants
Hero
childrens
wordless
compact
comprom
freeway
mids
committed
commission
##ronts
##ooned
Springs
Rev
evvy
refresh
barb
barg
intensity
##ucaly
spiraling
thrills
decre
decomp
tripped
tribut
joining
relieved
confuse
fleshy
squaw
squint
Mayor
touchd
asses
babble
babys
babbling
trailed
Club
bleach
quicken
thickening
insult
thinner
futures
devout
splinter
colorful
undress
Job
groin
dimp
Plant
##umbered
##meal
stoic
lawyers
Marx
purely
madman
sickle
faithless
wakeful
Poems
##cester
coolness
##ammy
##forms
reasonable
sharpened
terribly
messengers
commonplace
enterprise
spotless
##ologist
wisely
ordaind
fitful
causing
numberless
wheeled
sorcer
mixture
workshop
tempests
neighboring
balancing
##iterranean
matron
affright
statement
scorned
visitor
department
ephemer
##glasses
lyke
hyper
commanded
186
##ethered
copies
gnaw
displayed
sympt
judges
inspiration
spectacles
tremor
threaten
##nesse
cultural
##aunting
primal
whirring
hammering
dangle
werent
stomachs
metaphors
metaphys
betrayal
Laure
vapors
containers
unfolds
grasped
richer
sustained
##salms
boulev
bouquets
pronounce
improv
talents
dotted
replyd
coughs
mantel
considering
methought
dazzle
jealousy
Lucifer
dragonfly
arrayed
Mediterranean
homage
literary
occupation
clamor
sniffing
shivered
microsc
demanded
motorcy
Diomed
rendered
yawning
subdued
Robin
nourish
orphans
pupil
caval
Larry
discovers
album
XXX
fellowship
pirate
splinters
prodigal
flawless
conflict
embarrassment
Okay
dandelion
inferior
established
adolescent
puppet
significance
noiseless
disintegr
lobster
Pearl
##1515
catastrophe
Columbus
Infinite
sulphur
Eagle
aroused
suspicion
Yankee
exalted
valuable
acquaintance
askew
Ezra
vintage
Giovanni
anecd
console
##ucalypt
4th
Bos
Bash
Battle
Cort
Cars
Crying
Dion
Dull
Dove
Dew
Dying
Dusk
Elect
Fem
Gaz
Girls
Hi
Hed
Hanging
Kat
LI
Lily
Linda
Mam
Ninet
Oreg
Pall
Row
Sic
Sounds
Sisters
Top
Tired
Tiger
Vale
XL
alder
aghast
balk
bened
cools
dated
een
fu
fates
fenced
fauc
gotta
homet
hints
kut
kittens
lair
latch
lumps
lounge
nd
nas
noond
pom
puck
piv
pelt
portal
piety
rick
raking
rumble
siding
sores
tac
vor
vind
vulture
winks
##ean
##mind
##dog
##iens
##lon
##list
##look
##laid
##backs
##pill
##pro
##gal
##grow
##table
##have
##human
##uations
##cock
##word
##CE
##Bec
##Now
##Do
##Up
theories
##inqu
##atable
##esus
##orice
##enstein
##itars
##itates
inverted
##oto
##icus
##icity
##ications
beaming
befall
##alph
whipping
lib
##idas
##keley
myths
forged
##imony
##imeter
shod
shaving
shacks
shaping
rears
notices
hissed
wastes
decks
allure
##usa
chaf
chores
chanted
docks
flutes
##ieval
##raught
knob
sheaf
novels
##artic
ungu
unlocked
Whither
##olve
##iform
canary
##igrap
grot
swarms
trac
trink
abides
conch
convent
##inkle
scaled
ameth
exiles
combs
smitten
aglow
downs
sled
someplace
cove
crusted
##udging
twixt
howled
quivers
##quin
straps
disemb
wrack
Storm
teet
tending
##orses
remedy
comely
treading
trespass
endurance
blackening
perverse
silky
Beck
thoughtless
##ubstant
speeds
Orion
warbling
##angelo
##ggle
advers
partake
faraway
voiced
mindless
begs
##phine
hoot
Isle
recovered
resour
unta
phones
pharm
Hermes
burying
serpents
slowing
subter
commod
expose
expanding
Really
barred
barric
famished
##altry
eddies
Arc
Arist
reprod
republic
musician
decipher
obviously
interval
intersect
intercourse
crossroads
Unf
relative
confined
throbs
hotels
furt
incand
sonnets
solve
grandson
190
Trade
collars
##boats
dearth
changd
ballet
delayed
Joan
murky
grope
births
Scene
Gran
honours
Earths
figs
unfathom
choirs
verte
labored
studious
sickly
milkweed
obsession
petition
##iums
finely
funerals
palate
rubb
shrunk
wisest
freshness
baggage
strolling
precinct
##blest
##blade
##ologists
revive
Heavnly
oppression
Prod
Johnny
demol
Emperor
Quite
##oult
locom
dreaded
tuning
bandage
digital
captains
magician
##restrial
punched
dragons
murmured
Comfort
Seraph
Harv
releasing
disappearance
costs
pursuing
lifelong
matchless
toothless
hemlock
fashions
jeweled
acceptance
confessed
posed
##metic
gnawed
opposition
unmoved
excel
tendency
mainly
attendant
Walked
arranging
rumors
whirled
deceived
Calling
##icycle
grandfathers
Built
accounts
mailbox
rudely
stooping
muscled
frowning
scorching
Hardly
shields
coffins
moonshine
Atlant
Davids
witherd
philosoph
scatters
lurid
mosaic
sneer
sanity
##AND
Forest
crouch
efforts
roost
blinked
chapter
Grecian
uniforms
sloping
corrupted
trimmed
demonstr
##ENT
Double
environ
cubes
jewelry
inherited
##bells
ruler
##mmmm
Turk
##xxxx
Prayer
limitless
martyrs
twinkle
prickly
accomplished
barbarous
NOT
outsk
Stepping
reference
harbour
migrant
inheritance
carrots
awakened
undoing
battery
enthus
buoyant
ravenous
Thanksgiving
Orient
warehouse
shrug
grasshoppers
Weary
vomit
biscuits
crayon
Eliot
hysterical
Beware
Virgil
pussy
##against
Arizona
Napole
rinsed
affliction
Several
trophies
##ributed
lattice
seagull
arteries
sneeze
Fountain
treacherous
tapestry
telescope
##2424
unimaginable
alligator
lengthe
glimpsed
typewr
coconut
Innocence
russet
paradox
Ajax
immeasurable
pishno
noonday
27
Ae
BL
Bat
Bart
Bol
Cit
Cas
Cand
Danger
Drive
Eld
Easy
Eev
Gy
HE
Hat
Hig
Hang
IT
Kash
Lu
Loc
Mig
Nod
Nymph
Pant
Pul
Pound
Phy
Rav
Ralph
Sway
Tou
Tempt
Wet
Wave
Wors
Wilt
XII
Yarrow
cere
creeks
dau
eros
eucalypt
font
fished
fused
fume
fumbling
gad
il
ist
jammed
kites
kitten
lye
mash
moust
muzzle
ninth
niece
osc
pith
porn
pets
pods
paltry
rs
rowing
roused
sills
ts
tens
ticks
tapers
vicious
wd
witty
##ended
##mic
##mary
##iary
##aan
##lene
##lah
##locks
##bour
##bable
##brow
##oct
##pits
##riment
##nuts
##tie
##hi
##fr
##wa
##wine
##AD
##yx
##ko
##ás
##30
##hets
##inv
##erted
##rehens
##atics
##arie
##orthy
##itud
##omatic
##lete
stakes
stature
stup
stitching
##aders
##icon
##sticks
##sex
##alty
##ghte
lique
forcing
##enter
shabby
fridge
friction
##ilver
##ilated
analy
##oreal
dey
deme
blazed
spar
##riv
##rias
soy
sov
##uscript
chal
chore
##elike
loath
loads
##estead
lecture
flicked
##istan
clumps
clattering
pled
plight
plated
platter
robed
roped
canals
saff
grime
grins
graced
##opic
manuscript
intoler
posing
truer
##auch
feat
scut
scuff
scotch
amnes
##acht
comet
smug
aright
arth
agents
Toss
sludge
overse
overcoat
##osene
loveliest
coco
crun
crushing
prisons
##orthe
quote
awry
disheve
##ansl
props
Stuck
Stren
Stella
Asked
deserved
hereafter
tends
snares
##onda
watermel
percept
calle
##perors
##teous
##ube
dreamers
##ancer
Chris
embed
##oya
adieu
adequ
greatly
##anking
Note
saws
hoist
Shake
behalf
creed
eyeballs
untimely
coldness
phon
Defl
Seine
Seeking
##ultures
midway
##ternal
visc
meticulous
Rever
barrels
startling
##rics
accur
accus
thrilled
sandal
interven
intervals
faild
transition
jolly
biggest
furs
Lovely
kneels
Doct
Clay
lads
bodied
possum
silvered
Flash
strongly
consult
Twice
Twelve
##incible
cleanse
splashed
leaden
leaders
immigrants
diaph
planning
Scotch
crags
shuttle
ironic
failures
continents
disappoint
Expect
kingdoms
rustic
antlers
##coats
Glorie
postures
blossomed
exception
##blown
##blance
questioning
fingerprints
expects
dinosaur
mourns
notebooks
villagers
denies
cafe
servile
Sword
Swallow
threadbare
sweaters
thundering
locate
Pharaoh
buckled
pearly
digs
lustre
strangled
tosses
glittered
popcorn
autumnal
patterned
ravines
pitiful
hyacinth
combine
fiercely
Drinking
Missouri
incline
flutters
##iki
##ika
feminine
Moh
Moz
unrec
recording
ambush
vineyards
conquering
axes
haunting
Grandfather
Madeleine
whitening
defeated
Present
Mostly
Passing
binding
ancestor
Contin
customs
physician
woolen
awareness
bonfire
wrinkle
sapling
Patience
1969
Philip
coughing
Fox
considers
Berkeley
withdrawn
Surround
enclosure
represents
mechanics
structures
principles
cruise
instructed
shuddered
collapses
impatience
concentrate
rearview
disturbing
Hunger
sprouting
clerks
explodes
achieved
Trail
tattoos
##ndez
deemed
carcasses
rejected
Absolute
champion
abundant
Stock
Alexand
Horiz
sandwiches
glaciers
aquarium
bracelet
alternate
patriot
initial
carrot
lyrics
galaxies
oysters
##ACH
skimming
Scarlet
volcano
sinews
chooses
enthr
eloquent
wakened
silhouettes
observation
cushion
dentist
tattooed
tingling
uproar
verdant
photographer
photographed
harmonious
appreciate
nouns
Duncan
loung
illegal
avoided
Husband
luxurious
articulate
shriveled
##peakable
ruthless
##keeper
Starrs
submerged
surmise
destroys
congregation
fayre
International
smoldering
barracks
focused
voiceless
snowflakes
transparen
Battel
##enetrable
ferocious
contemporary
semblance
##abulary
palpable
Phoebus
Cynthia
Athena
misfortune
Vermont
khaki
##achusetts
Oregon
AS
Boo
Bri
Bul
Bach
Cab
Cover
Catch
Dak
Doom
Dancing
Dogs
Ellen
Gi
Gn
Grow
Goes
Grove
Han
Hoo
Hind
Hidden
Kr
Lower
Lane
Moss
Nest
Nude
Ode
Pour
Public
RO
Rid
Root
Rican
Si
SOU
Tal
Test
Takes
US
Worm
Wald
Wolf
Yo
ail
aph
bung
bier
bison
boned
brig
cac
cooks
cauld
dale
dagg
durable
fath
fuss
gourd
hart
hys
hunch
jan
jab
kink
laces
lacked
muc
mien
mittens
pore
pawn
rift
tic
tep
tier
tapped
tests
vernal
vultures
wary
wages
wrenched
##eld
##dler
##iences
##aissance
##lad
##bld
##bub
##obed
##tis
##tion
##there
##tails
##upp
##uating
##comb
##far
##wort
##wash
##Ab
##zens
##Till
##Let
##Can
##Even
##Your
##ête
##ndo
##ourable
##arus
toothed
##itutes
insc
##owd
##eta
stap
stere
staked
stinging
##adian
##stle
##semble
whoo
livid
##amo
##amic
##amation
##amity
withheld
##imps
shares
shuffled
asunder
mended
##ilk
Andre
sect
segment
welf
##chie
noticing
##unes
dealt
##thought
whet
athe
spew
##umper
orbs
chic
chins
chron
chlor
##roubled
loaths
##estine
flor
flips
floral
florid
flurry
worrying
##ulant
ung
unlo
unrel
unholy
##istence
clod
cloy
clump
clapping
Whale
##olith
##olving
grill
grunt
##assy
swamps
switched
pocked
conve
Heat
##venant
sched
hadnt
arctic
arguing
agon
slumbers
backdrop
crunch
prism
pricked
boils
strad
strum
disper
thanked
Story
Stretch
acute
##enser
desks
headache
teased
lethal
##izar
##awa
Chile
Choose
Chattan
vexed
##ggers
adam
cheered
##beats
firewood
finde
greenish
##phins
##okee
recy
resume
golds
##shore
##ilyn
marig
distorted
hourly
Alf
snowfall
burg
burdens
impet
starched
boyhood
##hened
catac
wildest
grounded
Reed
##ucd
idi
belle
erasure
##encing
footing
Unw
faç
hungers
transient
Bride
patients
League
##ahn
##cca
squal
squid
squash
bowd
##offee
trauma
roller
followd
followers
fleas
fleck
grandma
quickening
gentleness
praising
builders
Twixt
Willie
Amaz
Aband
undist
heathen
horseback
dimmed
explo
Became
Science
fasten
honesty
stopp
bounded
angled
chokes
Perseus
Marilyn
despised
Adm
Adah
shutter
hellish
neighbouring
##ropy
continuing
penance
loudest
disappointed
faithfully
Looked
observing
obsessed
travell
films
filtered
bananas
mode
propag
prophes
Prison
kitchens
swimmers
Glorious
hasten
hastily
lengthen
Enjoy
sorrowful
medals
ledges
salted
shameful
profane
villain
advise
advised
advanced
irrig
shipwre
wheelchair
addressed
fortress
hunts
objective
feeder
Crus
claiming
gallon
archaic
strangeness
Struck
population
##iscovered
magnets
rhin
piggy
nettles
##glas
reverent
pitiless
origins
tickle
gasps
widen
encomp
provinc
##aults
Guy
fluted
supermark
masc
hesitate
##ulean
184
contentment
squeak
eyelid
locker
clogged
Chevy
examined
positions
gnawing
Box
unmarked
casc
mortgage
malignant
haunches
conversations
Grandpa
Prep
##iveness
primrose
##etta
Anyway
connecting
connections
County
##ribution
Wrong
Wrapped
rhythmic
taxes
##ouchs
doctrine
mica
cradled
attempting
insistent
vigorous
pedal
extraord
Fourth
neighborhoods
accidental
##OUS
Actually
synagogue
withers
cedars
resolution
abstraction
footstep
tuft
##anza
merciless
Berlin
squeezing
uncertainty
Songs
Subject
Towards
consecr
inhabited
Hesper
Doubt
Douglas
Miranda
envied
Cherry
monumental
Damn
##IST
lacquer
galloped
accomplish
navy
Brothers
diverse
verbal
##manship
toppled
dolphin
Victorian
fundament
global
introduced
investig
deliberately
Massachusetts
myrrh
scarecrow
benefit
bristling
##burgh
Scotland
Origin
Cuba
worshipped
penetrate
fractured
adornd
Korea
stanzas
perplexed
AND
scourge
Ancient
draughts
mummy
uplifted
glamour
vermilion
dwindling
omens
kerosene
waltz
Thousands
crevices
incessant
launched
pancakes
engraved
skyscrapers
Lancelot
brackish
independent
##cepter
plaintive
deplore
Roger
Seventeen
university
satellite
pomegranate
episode
Trembling
wholesome
incomplete
voluptuous
unmoving
chrysanthem
controls
secrecy
graffiti
##atisfied
buttocks
Excuse
inexplicable
Aphrodite
Philosop
Caribbean
ghetto
Geraldine
Kenneth
piteous
frigid
woodpecker
Gospel
Hospital
midsummer
##Because
Aristotle
environment
typewriter
saffron
welfare
34
90
Bh
Bearing
Burns
Cop
Dw
DE
Dol
Diff
Drop
Dorse
Drawn
Ec
Fix
Fierce
Fingers
Hush
Houses
Kid
Lew
Lock
Loose
Mater
Miam
Ore
Palm
PART
Ruth
SU
Sang
Sits
Swell
Skin
Ted
Tab
Vel
Vio
Veg
Wine
Waking
ajar
bak
baking
bins
bals
cd
corm
capped
capes
cuckoo
duly
fooled
germ
hunk
hulls
hugging
loth
lug
mitt
mating
nada
phe
pike
punk
piers
pores
pyre
rime
rump
ripping
rumpled
sips
sipped
vet
wince
zen
##mill
##ián
##lan
##bis
##broken
##oi
##oly
##rations
##nest
##uana
##cur
##crew
##fter
##fied
##fuck
##wich
##worn
##Ar
##AK
##zu
##yne
##OW
##Have
##Ex
##RS
##11
##More
##än
##inals
##ington
##atross
##itzer
##owder
##ghorn
##oty
##uty
##acable
##access
##icable
##irted
##sequ
##idays
items
heark
hewn
heats
shin
shale
shined
shipped
meager
rely
recept
reborn
reaction
rendez
Andrew
weal
##chal
notch
deare
##gel
atone
blameless
spies
spouse
spilt
##riet
##rians
##elia
loit
Third
leaks
flaps
##epe
##oded
##odile
thistles
##oodles
outcast
unite
unfore
claps
clots
plural
##ifter
roving
robb
grunts
##opatra
poses
poked
abd
abst
Hee
Health
scra
scooped
##orning
wherewith
combed
comedy
smith
arching
slot
slum
slink
slanting
##ipotent
cogn
crumbles
##uda
twined
couldst
daydream
Web
Weak
afresh
awaits
pews
peonies
wayes
hearty
earrings
underbrush
proceeds
Store
acorn
acrid
academ
##ometimes
justify
remed
##fuls
droning
drugged
percent
slew
##pert
##uchs
spends
##ordial
##ocket
opal
musty
muster
##ancies
Christs
Noah
walkers
warnings
##angel
handsh
adored
##actly
redou
partners
homework
chees
##ogen
##ogany
strew
bloodless
Anth
sweeten
curiously
bedrooms
guitars
foret
friendships
recede
reside
residence
reserved
behave
pastel
elf
untied
distraught
steeds
##ibur
runn
phase
breathd
Alive
Alph
imperson
impenetrable
boyish
terrain
exped
Lethe
listless
Blest
Bloom
Blacks
evolved
empties
emptying
indef
indicate
courteous
citys
instruction
armpits
infirm
imagines
accidents
attire
decisions
streetlight
parable
ermine
Unknown
sadder
watchd
##ainties
Brain
john
discon
powered
relish
Leo
Least
Yours
yellowing
schoo
acted
apost
squats
springtime
assay
babes
incant
besp
merits
Train
Meant
Measure
whiskers
blended
easing
yeah
poorly
motes
motley
insuff
insults
personality
pathos
pathway
futile
devoured
Abyss
promisd
##uggage
diadem
Afterwards
husky
palette
histor
historic
pointless
##ambled
##cycl
doubted
faction
obsidian
pictured
wearied
weighted
driftwood
gatherd
rusting
antelope
filmy
banished
sinners
##force
eggplant
Glou
##sythia
english
tighten
fixd
urgency
sensations
sorrowing
media
medieval
appearances
meaningful
##ervd
Betty
Betwixt
profuse
portals
##ombre
irrit
Emerson
riddles
uttering
seasoned
unbur
delicacy
banded
##cribe
Tells
broadcast
muted
billions
particle
basic
##iscus
hostess
sheltering
roughly
guarding
##glorious
pursues
combined
tangles
cardinal
tested
testament
province
effig
renounce
includes
lowering
trickling
##ophane
fetched
railway
imperious
Cheer
bosoms
##INT
creamy
displaced
fanning
revolt
longe
casually
sooty
spectrum
inhale
murderers
cycles
satisfy
Walker
Jehov
temperate
grimace
stairwell
substant
paddle
Steel
piping
Apart
pounded
##employ
Antar
Anton
operation
appeerd
hummingbirds
physic
typing
circumference
grasping
bonnet
richest
vigor
vibrant
frowns
regardless
tempting
succession
loosening
intentions
carnations
Office
riots
renewd
licorice
crouching
ingred
methinks
withdrew
serpentine
outlines
crests
projects
philosophers
Belle
homestead
perpetually
1959
virus
coyotes
Market
dumped
overlooked
repeatedly
excessive
Braz
festive
Softly
mallet
screwed
beckons
beckoning
perceived
plunging
balmy
yawns
stallion
peopled
nigga
Themselves
Henceforth
developed
Oxford
slabs
retirement
Negroes
##gainville
aerial
conspir
hammock
Talking
conductor
giggling
mushroom
vibrating
infected
constructed
opinions
Princess
wagons
carpets
pansies
pendant
embarrassing
wistful
Congo
posterity
perplex
frequently
assistant
astronaut
Sacred
america
disclose
postcards
convenient
exhibition
Laughing
wizard
rupture
Village
souvenirs
recompense
illumination
cobwebs
Shelley
cylinders
tarnished
Tongue
twentieth
retreating
##igenous
dramatic
jukebox
##unciation
desirable
epitaph
tundra
Holland
crisscross
refusal
Revolution
Sebastián
unnoticed
Pilgrim
cistern
ephemeral
motorcycle
Dionys
benediction
hometown
amethyst
Harvard
outskirts
Kashmir
arthrit
Deflores
Mozart
Dorsey
Miami
rendezvous
47
60
Aff
ALL
Bor
Bry
Bath
Ced
Cities
Carr
Coffee
Dies
Direct
Ey
Fet
Fun
Hart
Hav
Hyd
Jam
Kick
Kept
Lose
Lives
Lifting
Lanz
Loren
ME
Magg
Ni
Nice
Nept
Obl
Porph
Roof
Same
Sings
Sears
Sally
Someday
Told
Tech
Used
Vision
WE
Wyn
august
banged
carts
cetera
dand
dives
dams
dizz
dyes
euph
gour
gash
gills
han
hick
hogs
lard
lub
lup
mime
mund
moles
masts
makers
ness
oure
pint
pne
pimp
rook
ruts
ti
tally
tiled
tamb
tugs
tinder
tatters
umber
viv
vowed
vantage
vortex
wri
wicker
ys
##eers
##each
##much
##dad
##dock
##añ
##lass
##lins
##bu
##pre
##pot
##pread
##rint
##rude
##nor
##nas
##hu
##cas
##cers
##cage
##cuss
##Al
##zers
##Its
##yan
##vings
##Cl
##Oh
##Out
##Each
##Did
##ís
##hear
##oughed
##aron
##aria
##arthy
toxic
##isive
##itol
stance
stash
stunning
##icates
##stice
##stered
whims
##iduous
##amine
##amemn
##imals
shard
shaven
frie
frolic
reun
reels
seeping
weaver
##rogen
##essions
##oret
##thon
blinks
blushes
blubber
##ript
##riving
##umen
soared
negl
chunks
loan
Throw
lee
leaked
leaved
dozed
flits
flayed
##iem
knitting
shears
##emor
outspread
unfe
unne
unroll
unlit
unemploy
##istine
##istics
clips
Whan
Whist
plag
braced
brambles
##ifl
##ifers
##areth
whatsoever
##igm
safer
grinds
swears
swagg
trays
trots
traded
tricked
Heights
scored
whereby
exalt
smothered
gond
##angar
slower
overp
overh
##ipel
cozy
##ullus
prote
##lesse
daytime
##bery
##athers
Weep
##blems
quaking
quint
Youll
##hesis
awaited
precept
strate
dispar
dissect
eyesight
Myster
progr
##oths
Asleep
evenly
treet
blackest
blackboard
blackberries
perennial
betwixt
calligrap
Bee
Beasts
speeches
Ord
##ivals
Fruits
adject
##actic
mightier
singed
contag
Anon
Ansel
Howard
##phy
humour
humane
dripped
haird
foremost
recount
resident
goldfish
eyeing
distressed
woody
steamed
runaway
phil
##ontaneous
Alpine
Hera
burlap
##retion
sergeant
drople
softest
slowed
midair
rounding
godly
Letters
metamorph
Bliss
Bloss
Rejo
repet
imagin
attacks
bellied
decides
formless
param
parap
parach
discomfort
Lev
Leaning
Levi
activity
fleshly
apocalypse
magpie
assu
assurance
incons
politely
grandchildren
tinsel
Clo
Wasn
witches
meetings
consist
graft
wronged
badger
supplied
##untary
##lette
ceases
shoals
shoreline
pathways
Amen
cleaner
splashes
promising
undying
undulating
horsehair
Become
##cessary
shapely
unfair
unfortun
youths
Perse
scrut
labors
coughed
shortly
harps
apartments
funnel
Deaths
Donne
richly
rustles
equations
admits
cello
filament
falter
savour
Agamemn
violently
nestled
pinions
harmonies
irres
Lightly
elected
Suns
Sunlight
Phant
bankrupt
embry
mastered
##ylvan
tornado
bandages
unsaid
barked
owes
captives
tailed
hurtling
billowing
cigars
expressions
sources
victor
lapis
belongings
Keeps
Feet
Feels
declining
juicy
echoed
panel
cropped
Silk
nurt
combust
translates
dispos
furnish
furnished
blurring
nicely
vacancy
superst
mascul
##uishable
suitable
Colon
##ERS
##ERE
describing
versus
Breaking
hospitals
debts
hawthorn
ambiguous
ferment
aimless
dampness
examine
copse
Madame
##worthy
opposing
Creature
kidney
judged
liberal
extending
attends
attended
celebrated
celebrating
resisting
duties
deceased
raptures
increased
drumming
piped
stupidity
Thrones
Conscious
essay
shrieked
Compare
unfolded
cradles
gauge
resemblance
plucks
Rockland
contrast
accidentally
synch
carnage
chemicals
1963
talons
elemental
elementary
lurking
exchanged
weeke
sneakers
memorized
panties
Skie
molded
vowel
merciful
outlined
mechanic
mechanism
wiping
elevated
Teresa
##Only
refugee
##accoon
stunted
shrouded
reconstruct
shudders
domain
tempestuous
tormented
Learning
azale
sprouted
crucified
bolted
Diamond
Damon
distinctions
definitely
righteousness
lacquered
sprawl
sprawling
boomlay
bunches
Family
Familiar
1914
continuously
unexpectedly
development
arrangements
Oxus
bicycles
removes
emotional
Major
withdrawing
averted
technique
Express
Providence
initials
torrents
Phoenix
jellyfish
fortunate
prodigious
volcanic
allegiance
Daily
roasted
vibrations
geometric
##ijuana
enamel
reconcile
reconciled
Cuban
monotonous
gypsy
tinkling
fingernail
traditional
parsley
octop
arrogant
beguiled
delirious
locusts
Zeus
moored
establish
adolescence
correspondence
enlarge
Beginning
avoiding
biscuit
stifled
american
therapist
Knights
cinem
pewter
Protect
bourbon
lagoon
extravagant
prefers
Messiah
Various
Smooth
shingles
outdoors
prudence
kindergarten
Pitts
pellets
tamar
alchemy
peanut
residue
Bacchus
Elysian
thrives
pamph
fronts
conference
Buffalo
funky
immigrant
Sappho
antennae
simultaneously
avocado
Odysseus
discharge
nephew
fungus
writhing
Leonard
Religion
mahogany
goblin
paralyzed
hafville
faucet
incandescent
Napoleon
Miguel
eucalyptus
stupor
adequate
Alexandria
loathsome
Chattanoo
impetuous
Gloucester
Lanzmann
Porphy
Agamemnon
500
80
Aure
Bore
Bub
Bitter
Cro
Comet
Cuckoo
Du
Diss
Eff
Fow
Fold
Fond
Felt
Farr
Flex
Gun
Hers
Hood
Jon
Jump
Josh
Kle
Kant
Lis
Lic
Lips
Mas
Mouse
Mix
Mae
Mosc
Molly
Nose
Pir
Push
Poll
Ross
Rode
Sle
Sid
Sung
Sier
Stern
Tick
Torn
Tib
Tires
Uru
Vac
Wing
Wash
Wales
Yid
Yield
aur
aub
bards
bales
bases
bounce
bishop
cir
cull
caste
cipher
density
eart
eater
fen
french
fagg
gene
gaining
jury
litt
linking
luggage
mou
mull
ning
pon
pard
pau
pinc
poult
rar
rite
ration
rims
rooks
sé
taff
tethered
ugl
wane
wigg
##eing
##master
##iard
##iating
##iates
##lip
##lined
##bine
##bag
##oa
##oking
##pack
##nity
##nail
##natural
##gas
##gments
##graph
##sky
##hap
##hard
##uper
##cre
##cars
##cons
##caps
##foil
##waters
##yt
##ynt
##Here
##Were
##ju
##jack
##Ya
##iners
##erk
##reement
##atient
##anter
throught
##isly
##itters
##itably
inquis
inaccess
##asel
##asive
##assemb
##leaves
##oter
##uten
##acs
##icol
##icide
beque
bended
##alone
##kels
##amus
##amos
##imore
##imitable
##entric
##illate
##illery
shamed
meag
##cels
rewr
##ilings
semen
weld
hereto
anointed
##unting
deign
##thouse
blurs
bluer
spices
soj
cham
chunk
##astrous
loathing
lexic
fles
flail
flailing
areas
##ulum
upd
upland
uphol
knaves
shear
nobly
unres
clack
clich
Whirl
plod
##inea
##abine
rove
sages
grays
Incl
manna
swish
swerve
poker
trow
abound
conting
##ickers
fec
feard
feigned
scuffed
amaze
exto
exempt
smir
smelt
arid
arsen
eyeless
Toky
slough
slits
slashed
watry
lightnings
backlit
overheard
##ipt
skunk
crumb
crashes
brest
twere
twos
##pton
enfold
Wealth
sunflowers
disord
disple
disreg
disobed
disastrous
foggy
proven
Stones
Stretched
##othic
desicc
headland
headlines
headphones
##mered
childless
treble
waterfalls
draining
drunks
blacker
lethar
Beaver
eminent
eminence
##oyd
skyward
##azard
##bee
##ogical
voll
Allah
begotten
contracts
paine
painfully
curly
humbled
hopped
hopping
Shining
##pended
reciting
recedes
restor
brocade
elusive
deepens
creased
girdle
eyeball
eyebrow
##neck
runner
sumptuous
Def
Deer
woken
wobble
Alc
##arned
Likewise
Herod
Herbert
foundations
##fected
impressed
##affe
dropt
article
##ocity
nearing
composition
freezes
wildness
terrestrial
Blank
evac
indignant
bargain
joynd
inviol
tongued
##almed
laund
armored
reputation
idols
thrilling
stripe
attacked
cornfields
bellows
persists
streetl
obd
interl
footage
cork
discrete
roseb
rosemary
relieve
patina
pathetic
centers
schoon
sighted
apace
travail
incision
##athetic
merrily
tints
unco
uncur
Clothed
differences
regards
mistook
Manuel
depress
quickened
gentler
entr
entreat
conson
consuming
##leton
ageless
wishd
##fluous
insens
##rayed
thinned
promen
unde
undressed
murk
leafing
explor
wingd
yester
frontal
Christians
honed
Earl
Canal
topmost
radical
chopping
Marble
rooftop
defining
label
##ropolis
obser
extremes
Poem
functions
straighten
Excal
travelled
travelling
meantime
richness
rubies
shrub
equation
foods
turmo
cellophane
Conquer
odour
listeners
##lihood
completed
engulf
pretence
porter
salts
saliva
receiver
churchyard
specim
dinners
torments
opposed
puls
##cheon
advances
capacity
Emma
Swed
smoothly
visionary
baths
Phill
untold
variations
unknowing
complaining
rowboat
Carth
shedding
archipel
mutters
strangle
strangest
Stranger
surprises
matched
swiftness
valves
values
frosted
afflicted
possessing
possessions
magnanim
##guard
Keeping
spelled
epoch
costumes
dissolution
package
reflects
ribbed
combination
timbre
wanderings
dispatch
multitudes
yielded
THEN
##ivalent
argues
campfire
Warren
Moves
gutt
courtly
succumb
fervent
properties
gaind
grieves
grievous
steamy
Madonna
Childhood
robust
Augustine
##iasm
unmade
shocking
malign
exceed
exceeding
clutter
linoleum
Prec
whiten
whitened
Knew
yellows
bombing
stairway
Opening
Cleopatra
flourishing
Steve
Steven
Buy
##breaking
desperation
Writing
Midas
##agonal
##ovèd
vigour
ventured
resembled
Simple
aspiring
broods
Holds
chalky
Regard
mingling
skeletal
fidget
reported
Michigan
Wordsworth
Watts
caresses
caressed
2001
sublim
Rustums
lemonade
heeded
limpid
ceremon
jerking
wipes
Command
rituals
Terror
##stopp
prairies
tissues
occupy
contemplating
lunatic
diminishing
oozing
determine
Gardens
bundles
crucial
disgusted
affectionate
fulfilled
erected
Capital
beckon
overturned
Bringing
##hells
seamless
interruption
Borne
handfuls
prophecies
Invisible
nourishment
Amidst
Odd
obstruct
1000
aspects
unfurl
revolutionary
Flying
Frozen
imprint
patriarch
Following
grooves
Floats
tumultuous
relaxed
carrion
monarchs
loyalty
concerning
volcanoes
cobalt
staggering
merchants
juniper
myriads
sweatsh
welcoming
scalpel
miraculously
products
Ethereal
commercial
icicles
recollection
uncomfort
censure
cushions
resignation
Oklah
foule
gaily
puppets
Success
civic
##wheel
reefs
vocabulary
catalogue
increasingly
therapy
humiliation
Norman
molasses
apparition
outrageous
Imperial
deposit
Barbara
rebuild
gurgling
unwritten
Hymen
saucer
impassive
accompanied
intestines
zigzag
Further
SPAM
evergreen
University
unforgiving
Lazarus
overthrow
adjacent
minstrel
sharper
smudged
sunbeams
Shepherd
comparison
Hannah
Matthew
whirlpool
Lorca
ungrateful
algae
Michelangelo
Hundreds
groceries
mathematics
aflame
apricot
Separ
syncop
handwriting
mauve
unafraid
abdomen
unfathomable
vertebra
rubbish
##rehensible
Strength
tepid
inscr
substantial
##ylvania
masculine
Chattanooga
Tokyo
Excalibur
42
49
AT
Ak
Aid
Buck
Brave
Barn
Bald
Bruce
Cir
Cock
Cann
Dise
Dread
Dism
Eth
Fen
Fig
Fuck
Hem
Ivy
Jour
Jumb
Jumbo
Key
Lent
Lark
Lyn
Ming
Mot
Mace
Mud
Mumbo
Nur
Oy
OR
Ped
Pun
Pig
Ran
Rare
Raph
Roche
SM
Ske
Sunk
Sina
Tus
Wool
ave
ace
aide
astr
aesthetic
bikes
cider
eare
eek
ecc
hued
hoops
hinder
huddle
jolt
jesus
kest
lashing
linden
mats
malls
mumble
macker
nam
nudge
omen
pouch
raving
rote
raccoon
ss
ses
sard
sifted
sombre
tins
tying
tapes
tugging
tackle
vouchs
wol
wails
wyn
wailed
yanked
zip
zephy
##ending
##mar
##mere
##dr
##dal
##iw
##iy
##iop
##lark
##lots
##bin
##bot
##bred
##bian
##bably
##oked
##oirs
##press
##pins
##rush
##rants
##ni
##gre
##gle
##gard
##gate
##gling
##gently
##times
##horn
##hib
##IX
##yon
##yse
##vary
##CT
##FE
##OVE
##xual
##Every
##Just
##ür
##UD
##Qu
thes
##inside
##erated
##rement
##atching
##ederate
##arves
andor
##anity
thirt
threshing
toiling
##isks
inky
injust
inglorious
##ombs
##lehem
##otof
##acons
##ayne
stumbles
##icting
##stan
##section
##alan
wharf
##idy
heore
##lysses
##enta
##entious
shaky
hagg
hazy
friv
frae
fringes
##herher
reind
rewards
reeled
seer
seeps
herman
##uning
dealing
##thood
spurn
spittle
spades
spasm
sputter
##rium
neb
chicks
charts
##elp
lends
dozing
flask
flipped
fluct
##oding
##odon
##owness
theyve
nov
noont
##arther
outd
unad
unce
unapp
unme
uninter
clues
align
albeit
pliant
placing
##ousy
brutes
cancel
sagu
grapp
grudge
gritty
##opened
##assion
suite
trades
##aund
abol
Heath
feare
whereat
examples
smild
smog
archer
downed
glands
glided
slows
lighten
lightest
someones
##oso
##ipient
skipped
cran
##udo
tweed
twitched
timely
quay
quilts
Youve
preaching
Force
Forbid
strides
strayed
peal
hash
offense
wrapt
footh
probe
proxim
Stan
teasing
trellis
owne
droops
blackberry
Socr
sweated
Bees
##tec
carap
opend
opulent
Chop
ember
emperors
menace
walkd
##ivorous
warble
warlike
##unga
wafer
adapt
adults
##active
##actory
homemade
farming
sleeper
##ogram
begot
greener
surpl
Notes
##yson
holler
hoisted
Whereof
guzz
Shot
Shir
Isolt
foreground
resolute
moonless
drab
gird
harden
runners
phleg
Nowhere
retird
retrieve
wobbly
toug
##note
impotence
starlit
monitor
compens
midget
winn
comma
commas
expire
yearned
viscer
Realm
evils
evident
indist
barter
invincible
##ucer
diffuse
repay
imagery
stripping
attitudes
momentarily
cornered
decad
decreed
persp
formation
forgave
forgiving
footfall
Unre
saddest
satur
Ours
transitory
Brooks
corro
joking
powerless
conform
confron
confront
patched
patrons
Leoline
furry
furiously
limping
travers
breasted
hurries
policy
solitudes
Doing
uncovered
Claire
##erno
Mee
Meaning
tablets
dryness
illiter
Flat
Flours
depot
thicker
thickest
spirited
entw
entrails
consort
##These
gravest
badge
Twilight
insin
balled
cleanly
News
promisc
undes
immune
delta
diapers
animate
animated
climax
clotted
tenement
Scam
honors
Earlier
Canaan
unfaith
lawless
radar
radiation
defines
couches
destruct
##cedes
madly
sacrament
straightened
Exper
fighter
Donald
daunt
cellars
##ammers
filial
filters
filaments
filigree
propos
##know
sinner
Parade
savor
plantation
maYa
urch
Envy
meditate
salam
expectant
diner
innards
payment
##parable
oppose
advoc
trusting
denim
##formed
servitude
threading
thunderb
thundered
addition
comforting
guessing
mastery
honeyed
temporal
Crows
unsus
unspeakable
complained
faintest
##hetti
journ
particulars
suspected
falsehood
excuses
basil
collector
narrowing
solely
unworthy
remaind
blocking
shelters
guardians
prepard
##glove
reverie
reverend
calms
pursud
diesel
encourage
Belief
glimpses
lordly
Monte
Cola
toothbrush
Moor
commanding
eastward
rebuke
rebirth
probly
fetal
fetters
affected
gripping
journeyed
Bobby
vineyard
politic
casement
judgd
inflamed
Englands
coastal
murderer
Grandmother
cottonwood
altitude
greeted
fevered
primordial
derel
chiming
Windows
implore
padded
seduct
habitation
hoods
buzzards
chiefs
##claimed
sacrificed
##elfth
civilized
plummet
accordion
sustenance
limbed
glistens
foolishness
officials
bougainville
successful
Disapp
cordial
descendants
saintly
##iques
stabbing
panther
pallor
tufted
sculptures
acquire
cerulean
Richmond
congrat
fretted
Confusion
dragonflies
battal
peppers
supporting
Milky
consequ
suspension
masturb
injuries
napkin
McC
McG
dipl
accommod
sniffs
Eleph
##istocr
industrious
Endless
swirled
Hungry
gazelles
##track
bundled
responsibility
College
fulfil
options
Working
clowns
overtake
restaurants
pronounced
conclude
sprinkle
reclining
nourished
ascended
bewilder
##riminate
##Still
undertow
Horace
Prophets
Verse
terraces
Judas
glacial
Louisiana
apologies
Anger
bracelets
removing
technology
Priest
chirping
conspicuous
screeching
vigilant
Denver
Mistress
lenses
Lyc
dolphins
scrawl
unraveling
Ghosts
infection
maneu
temporarily
scrolls
precedes
Hamlet
thoroughly
dingy
monotony
transported
empires
snarled
Dickinson
Dominion
thumping
hydrange
Korean
persuade
daffodil
entertainment
overwhelming
baptism
Diego
bothered
Ancest
gulp
unquiet
scientific
freckles
freckled
Building
Papa
certific
vehicle
expanded
journalist
follies
summits
premature
endeavour
experienced
rebellious
dubious
dormant
slamming
Study
souvenir
incessantly
destroying
skyscraper
egret
cocoon
exclaimed
cataracts
droppings
Empyre
estranged
##plendent
anatomy
caravan
Bronx
hovel
scalding
equipment
Psyche
dirge
vanquished
turbulent
insomnia
Baltimore
Dublin
caterpill
dulc
wrauth
##obiography
lumines
chandelier
entertained
Bethlehem
Cotton
authentic
##INDA
sulfur
acacia
Future
vampire
Atlantis
lengthening
intolerable
Horizon
Dakota
disperse
##izarre
extraordinary
Jehovah
Lorenzo
gourds
pneum
tambour
irresist
Pittsburgh
Moscow
Uruk
Yiddish
earthen
fecund
turmoil
Oklahoma
mackerel
frivol
300
44
69
70
Ath
Bou
Boom
Brig
Cav
Cave
Coke
Carm
Calls
Died
Duc
Drew
Dressed
Fa
Fled
Fog
Feed
Goo
Gert
Gib
Hour
Haste
Jub
Lod
Liz
Lakes
Loy
Liter
Lux
Mum
Mortal
NY
Nat
Non
PR
Pel
Pars
Pardon
Rap
Rail
Rib
Rico
Rimb
Sull
Sens
Sieve
Une
Ulysses
Ves
Vas
Wa
Wrought
Wanting
Ya
Zion
bizarre
catt
dall
dess
ee
fy
gins
hib
lured
looped
mu
mont
mowed
narcissus
oon
ost
oaths
pes
pact
paving
pails
rood
rere
raked
rumbled
racco
rudder
sord
tumb
tamed
tacked
tumbles
tyme
uh
vices
wot
wry
waked
waded
wading
##eR
##da
##dings
##daughter
##lical
##bas
##rite
##rade
##roof
##ranes
##nake
##nance
##goes
##tin
##thes
##hma
##worms
##western
##zone
##IV
##Tr
##kens
##Ch
##GE
##NA
##je
##Down
##RY
##ícan
##reled
##orrows
##onal
##anic
##anct
##anne
##isman
##lement
##acd
##aya
staining
stupe
##sted
##stalk
##stery
##stroke
whod
whipp
##uro
heating
withstand
##oored
ford
forsw
##imated
##enting
shon
assh
fries
mending
##ceived
##aines
reard
reception
reeking
##ilation
seared
seethe
seques
##terd
##terior
nothings
anom
anarchy
##root
deals
deleg
demented
##thian
##gebra
blanks
spred
spicy
##ripe
##umer
chor
choral
loon
loot
loomed
loiter
lolling
Thither
##esto
legg
dozens
flaking
flitting
flinging
flipping
flattering
arena
##raise
##ulence
knoll
shee
##tof
unin
unav
unass
unaw
##elld
clove
clamp
clomb
clamped
clods
alms
##oler
##olar
##olts
##olitan
plowed
plumed
plaza
roiling
rogue
canv
canes
##agd
##aghetti
Invent
Insect
##assing
swarthy
scruff
Butter
whereso
external
smould
smite
arbor
aristocr
goings
goble
handy
handling
glared
glares
slats
slams
greets
Wheel
backing
overc
overalls
overcast
coke
skate
crap
prices
twirling
ensh
enraged
bobbed
Weve
quilted
afire
prel
prehist
striding
struts
peat
disrep
disobe
underp
proving
Stret
Staff
##airn
anyhow
anytime
turnip
snore
trek
endings
##onsolate
drape
drills
drilled
blacken
blacktop
perimeter
sleight
Soc
Social
##ubby
carriages
Orph
Organ
goodnight
ope
Chance
Chair
warring
warfare
belf
appointment
Fright
chef
housewife
clears
contrived
Animals
pained
surp
surges
needy
needful
hummed
dries
Whereby
Shook
Shop
Shoot
Shabine
Islands
resounds
restrain
##ringing
crews
girders
##ateral
##aternal
untroubled
marriages
distrust
runway
hourglass
##ontë
retrie
Deity
Seas
Alike
askance
starred
starfish
purge
artless
artful
##oco
competition
softens
freezer
##ternoon
wilder
terra
winner
dusting
metron
Spark
Reaching
finishing
barges
invites
famed
##uccess
infam
fairies
Arise
repast
strives
attained
Immed
decaying
decrees
formula
obit
##thest
intert
Brut
Brand
Brings
Brontë
bitches
joind
heavenward
discreet
simmering
relinqu
centered
Leban
##aha
Afghan
squared
eaters
bowling
Theirs
furred
assail
rollers
hurting
genital
syl
blindfold
besie
merest
hangman
perfected
Meat
languor
sentin
brotherhood
Flow
depressed
divinity
thickets
gentlest
entropy
grabs
prized
Willy
motiv
insign
ceilings
smoothing
bottled
ballad
thinning
devote
devours
Abel
coloring
delays
bearer
horsemen
dims
ancients
Grown
Grows
Graces
stragg
honored
craggy
miseries
lawful
Marcus
shutting
shuttered
vermin
deform
defiant
hells
laboring
mountainous
Independ
hallelujah
lottery
generals
Worth
turnt
constancy
garb
garish
pinks
##ammable
sprite
gunshot
Prim
Pract
hatchet
sharpen
faltering
postp
posters
savior
Understand
eighteenth
##lius
complement
##odend
maul
tightens
porous
urges
Ench
presently
legion
legacy
revision
receivd
powders
tomorrows
villa
tearful
Heavenly
bitterly
denying
Question
classical
electronic
banked
variation
sorted
masterpiece
##ylan
Crime
unsought
crackers
luckless
bravery
owed
captivity
horsesh
basalt
revels
reveald
puny
exhal
valor
frosts
cowards
beholds
magnified
Kees
morals
Hollow
Chariot
scorns
infinites
prepares
bolder
netting
battlefield
panicked
calamity
Lovers
crocus
Highway
rabid
annual
bravely
disposs
Roach
##rational
efficient
##ibern
heroine
blurry
Guest
blasting
obscen
sucker
offerd
##walking
campus
campaign
stalked
Baron
##ienna
Breathing
unrem
lovingly
squeaking
auditor
gainst
griev
moody
boarding
foreigner
Madrid
mosses
frightful
tuneful
skew
robins
scribbling
museums
communicate
sheeted
##nesota
coasts
cymb
Apple
searches
Babel
Instruct
totem
cooing
resisted
organic
honourd
grimy
virginity
implies
implacable
flourished
sedge
seduce
performing
unhapp
Stein
shyly
rigging
##ribly
Written
Midnight
holidays
webbed
dunce
Minnesota
obeys
Summers
frowned
regarding
scorch
mythology
##quita
Jerry
respected
Memph
Memories
cordur
fidel
fainter
informed
swarmed
Crossing
Lawrence
bombed
memorable
symbolic
clarinet
Nearly
professors
roosters
anchored
wardrobe
acquired
niche
honestly
Putting
Returning
jerks
Medusa
brimmed
conjured
vegetation
elegies
1950
Victory
zealous
membranes
diminish
overlooking
customer
duplic
permanently
determination
lucent
##ausaus
rulers
teenagers
flatten
capsule
fancied
Honor
bosses
cathedrals
ardor
fingertip
pollution
polluted
scanning
Attempt
cavity
binoc
Judgment
erratic
barbarians
XXV
bumping
removd
unchanging
colonial
##aucous
chirp
Hoping
bondage
ceasd
cyclamen
eerie
ruffles
humidity
rapidly
athlet
clapboard
inhabitants
rectangle
allegory
giggle
staggers
unravel
Renaissance
Visual
bristles
distinguished
rouge
##colm
courtship
reluctance
Olga
gulfs
fresher
Maxim
accumulate
stammering
beguile
reservation
indulge
Radio
frequency
cultivate
stagnant
untrue
radiating
embroidery
Cycl
helicopters
descry
genesis
admirable
marvell
experiences
Fifty
auld
##anthus
Streets
crevice
artifice
crocodile
professional
swaddled
cataract
corporate
swivel
peanuts
vaulted
##foam
anatom
Coca
corset
trolley
##ichever
uncontroll
unheeded
impossibility
doleful
serenity
dismantled
optimism
sceptre
preparation
persimmon
BOOM
quicksilver
unearthly
Agnes
devastation
disagree
vendors
insatiable
unequal
buddies
##orescence
unicorn
apprentice
recomme
windowpane
Australia
Daphne
Ivory
compromise
cavalry
pivot
##ubstantial
furtive
locomotive
enthusiasm
demean
disheveled
embedded
cacoph
daggers
janitor
supermarket
Lewis
Brazil
frieze
swaggering
strategy
heretofore
inscrutable
hermana
proximity
viscera
raccoons
BB
Bard
Bord
Brief
Bomb
Cou
Card
Cust
Cries
Covered
Courage
Dart
Dumb
Doc
Disp
Drift
Diana
Duty
Dylan
Ease
Egg
Erie
Faint
Fools
Fixed
Farther
Grou
Game
Giving
Growing
Goya
Hate
Hank
Hither
Harr
Huge
Joys
Li
Lions
Lover
Locks
Lately
Lived
Luke
Mong
Mos
Male
Motion
Oil
Pab
Pont
Pige
Ron
Rot
Rol
Ride
Rab
Rule
Runs
Route
SE
Sab
Sax
Syr
Search
Splend
Tun
Taught
Taste
TOUS
Vic
Vent
Wid
Worn
Wright
Yon
ails
bise
bores
baying
bangs
drou
dally
dys
dames
dual
domed
dumps
ebbing
fes
filing
fuming
gangs
hi
hou
hie
kar
kit
lith
lances
lisp
mote
mowing
mumbled
mache
nicked
noodles
oaken
option
pi
poo
piling
pining
psalms
rally
rakes
rates
rhaps
rowed
sue
sangu
tarm
tipp
taper
toned
vass
york
zinc
zomb
zodiac
##ele
##dja
##aft
##lain
##lter
##beth
##bacher
##burst
##opp
##ovd
##put
##pir
##pid
##nos
##hon
##hum
##horse
##cart
##cide
##cience
##fy
##fight
##filled
##felt
##wire
##watch
##washed
##woman
##IP
##Thy
##Fl
##ST
##God
##ximate
##hey
##heth
##hels
##inies
##inos
##inna
##erick
##reens
##atre
##atown
##atile
##arious
##orig
##animate
toile
##ishers
##itus
##itative
ingr
inlet
inartic
##omd
##etto
stoned
##icd
##icult
bever
behest
##irting
##stands
##seed
wha
##urger
livery
Thel
##vered
withstood
##ooke
forso
forsythia
##imately
##illo
##illaries
shri
frugal
meä
##hering
rejoy
renders
##ilia
##cha
herte
##rokes
blac
spars
spattered
sprig
spaghetti
##rip
##apolis
soaking
oracles
neigh
##uscious
churn
chanced
chasms
lopped
Threat
##este
##ieur
##ievable
##odel
noblest
##arthed
wholeness
unal
unhing
unity
unple
unatt
unused
unruly
clanging
alters
alright
aligned
aliens
algebra
##olence
##olian
##ousse
##abs
##arel
##igon
grumbling
Insp
manes
manip
maniac
swifts
swifter
poes
tricycle
##nty
usd
usura
conception
moot
##icky
##ickering
feats
feignd
scam
scans
exasper
arith
##angered
glades
glints
slanted
watt
nighttime
##adequ
copp
coiling
moreover
skiff
skilled
crutch
twirl
enh
booming
boasts
Weave
quer
afric
affords
##quite
award
sayings
sunglasses
strata
dissemb
disasters
ached
acoust
desec
headless
##airy
teams
remarks
snot
snaking
tress
betrays
Bend
Been
Orb
Charm
##ivable
warrant
appli
veer
partially
##bey
##insic
Alley
firefly
cleaving
greenness
surly
needless
##ixon
bedtime
guild
Shore
##people
Isnt
hairline
haircut
resil
resplendent
pastor
pastime
##ierbacher
##shire
colt
drafts
crease
crepe
creator
doorkn
doorbell
secl
##never
hardening
hardwood
marred
marvels
wooded
##xton
sums
muses
Seat
Seasons
meaner
brightened
brightening
##landers
impure
starch
purg
Byron
##ocaust
compos
compressed
composing
exposing
##uphem
Spear
Reierbacher
fresc
barbers
barriers
baroque
courthouse
invoke
installed
laud
armpit
layered
##bright
inflect
Ard
Armen
thirds
minim
minerals
Impl
##ymes
##asonable
deciding
streetlights
obel
obsequ
errant
##encil
interests
Unseen
signatures
signifying
circulation
bitters
risks
discol
discount
disconsolate
##jects
confusing
confounded
Lean
Leaf
Leader
##ccable
apology
squirm
furthest
inconse
hurling
genitals
solstice
syring
grands
merge
tiniest
Doe
Door
hanger
uncover
Clim
Clothes
##ernacle
countrys
ruld
whisk
sentry
raiment
changeless
Flame
Flies
Flora
diviner
##sterdam
forthwith
streamers
Sometime
motive
motors
insert
necked
ballads
AmeR
undef
immers
Join
murd
boxed
Playing
frontiers
goldenrod
Gramm
honoured
craves
Canadian
bounding
unfor
Perchance
deformed
laborious
doubles
mountainside
disappro
harlot
extr
Exactly
kingly
paler
shrimp
wisps
Ahdja
Constant
##yrical
Prato
##forter
weathers
detach
Peers
Pequita
Globe
posted
maus
glean
seaside
boatman
porpo
sensuous
expectations
revived
orderly
approved
weddings
publish
Slip
##chel
irrad
Smell
Smiles
ridged
fortitude
sparkled
locals
dwellings
lengths
buckles
Older
vastness
tempo
unknow
complains
compliment
gallows
galleries
braiding
virtual
lilt
Strangers
Sweat
unwield
unwanted
populous
Comple
separates
Kevin
morality
##ennel
visitation
netted
recognizable
panop
pitching
Loch
packet
packages
Plei
bordered
timbers
mansions
translating
Drowned
multi
oblong
effl
bulw
keyhole
inclined
Guess
Guide
escap
argued
fluttered
stationed
cupping
Colin
hemor
guttering
accepts
squeal
boreal
fetter
rhyming
thumbed
fondness
halting
foreigners
Deliver
frighten
skein
robber
deliverance
politicians
ruinous
##boro
ripeness
tendons
eccho
rejoiced
linens
##Without
feasts
derision
grinned
harvesting
dangles
Steam
Apost
judgement
martial
Thrice
buttoned
stainless
citrus
operator
appeard
physics
typed
ecstasies
Iran
Iris
##ovable
plotting
plotted
bonie
bonfires
sustaining
regarded
pavements
saplings
Sleeping
Cambridge
Atlas
Polit
Poland
moulded
scatterd
slipper
woolly
multiplied
lurks
inventions
renewed
renewal
pantom
senior
tuber
sculptor
##REE
brandy
caressing
lulled
guiltless
Divided
Welsh
tyrann
heedless
acquies
crested
darted
represented
projected
fretful
therm
enchanting
absorbing
Bells
supported
Frankenstein
tireless
elevators
prowling
astonishing
addresses
McM
cruising
Melville
overlook
clamour
Elements
brutish
instincts
##finch
transformation
concentrated
Braille
booze
sprouts
cabinets
trampling
excellence
ruling
remarked
persistence
scythes
diligent
Forgetting
winked
##ithee
fulness
appetites
Circle
wyll
orphaned
relentlessly
pawing
Catullus
Horror
Hurry
navigate
overflows
obstinate
Wallace
shawls
blotted
removal
illuminates
encountered
rivulet
Hyper
raspberry
vagrant
##hhh
documents
Malcolm
tassels
proceeded
Victoria
Observe
skimmed
obligation
##Shall
chiseled
bumper
nibble
junior
##color
##uscule
Rolled
flavored
pecking
Cease
conflag
python
commitment
mammal
peacocks
Congress
fibers
adoration
Drops
frenz
phosphorescent
Carlotta
clinic
quantity
Pleasures
contradiction
Ceres
scanty
furrowed
survivor
blazes
bacter
leavings
significant
Aztec
analysis
Legions
rebellion
Library
scalloped
resonant
amput
bluep
Chinatown
Altar
Colorado
trophy
##IME
recovery
intermitt
ascension
alchem
envelopes
recurring
incredible
Clifford
salvaged
##himhim
surveill
trifle
Sighs
shaman
evergreens
sluice
caravans
imperceptible
imperceptibly
aggrav
calcium
Harmon
shrewd
saxophone
pinnacle
Vertue
integrity
advertis
##SAINT
blasphem
camouflage
bayonet
celery
Magnific
aggressive
bashful
ditto
corkscrew
incarnate
blemish
crystalline
Vincent
reminis
passersby
conventional
symphony
José
varnish
whateer
cobblest
FROM
kaleid
bladder
unanswered
amusement
proverb
adulter
Bashō
tacit
##Upon
unguarded
grotto
disembodied
subterranean
cerebr
##itudinous
amnesia
watermelon
phonograph
Doctors
unrecogn
fathoms
stereo
shipwreck
mascara
##cycloped
Neptune
hickory
##angaroo
treetops
weekends
Aurelius
faggot
inaccessible
meagre
sojourn
##stoppable
thirties
injustice
haggard
unceasing
indistinct
promiscuous
Rimbaud
sordid
Lebanon
corduroy
TOUSSAINT
inarticulate
AmeRícan
32
Au
AB
Abb
Ariel
Bog
Bodies
Craw
Cathed
COM
Catherine
Dom
Dong
Done
Dare
Dund
Dagon
Danny
Dragon
Ein
Eile
Eager
Euph
Fav
Fern
Frog
Gin
Gas
Gorg
HA
Hap
Hans
Hub
Huth
Hades
Horses
ID
Jar
Kar
Kids
Lots
Lug
Lift
Laughter
Loos
Liam
Liqu
Mu
Mild
Mock
Matter
Masters
Ner
OUT
Ostrich
Pent
Pep
Psal
Riv
Rites
Rilke
Rhine
Sed
Sod
Sple
Sug
Towers
Ul
Uk
Ult
Vul
Vine
Voy
Ware
Waste
Walls
Watched
Wearing
XIII
bil
bully
bumps
buddy
cuc
coop
dight
dote
dashed
dashing
dyd
ditty
eul
euphem
fitt
fares
fictions
fuchs
gim
gape
goof
gully
hives
hugs
hulk
jot
jur
jays
kelp
lapped
lumin
larks
luke
lugging
luscious
lyrical
mapped
males
mites
mumm
ni
null
nylon
ping
pries
pined
pumm
pooled
roles
rambling
sided
sizes
tamp
tawd
utop
vases
winking
xx
##ea
##ender
##moke
##dying
##iwork
##aild
##love
##ben
##bil
##buck
##bags
##ointing
##past
##powder
##rack
##girl
##tor
##thens
##hr
##ht
##han
##hall
##hawk
##ucl
##uates
##ulets
##uaries
##cor
##city
##cases
##cups
##found
##finger
##wings
##yet
##kms
##vre
##vity
##xter
##En
##May
##Unt
##heets
##helf
##eros
##erpt
##ouraged
##reated
##regn
##atan
##aration
##arice
##orc
##lla
##eng
##enches
tost
tokens
##itos
inaud
##leaf
##etian
##eterm
##utto
##utton
##across
sted
staves
stuc
stasis
##icest
##icating
beep
beare
##ira
##seat
whitt
##urp
##urge
liars
liking
Thebes
hew
##verts
isolate
##amore
##amel
withhold
##ooch
##ooper
##ento
##illion
shits
shames
mell
##ainable
reft
reaper
reaping
selection
weathered
##chid
##roe
##roach
##rope
##indor
blust
blah
spume
sparse
spouts
ally
nears
##ackles
chink
##elines
##elcome
loll
loathe
##anta
lease
doze
flapped
##odus
##ctica
sheeps
sheathed
nob
nos
noons
outlet
outpost
outrun
##ppd
whoso
unz
unner
ungain
##ellers
clav
climes
clums
##olks
plows
##ousing
##ifie
##ifty
##amele
canned
gruel
gristle
grisly
##aga
##agen
##agos
##agara
manual
suds
suction
##icho
swich
##outing
poisons
trund
tromb
moat
moors
feud
feasting
scaly
Butcher
amen
amain
amiss
exert
exuber
smashing
smirk
arb
agrees
agonies
downe
goggles
handing
handiwork
glister
gloved
Toy
sling
slings
slaps
slogan
backbone
##iping
##iped
seeke
covenant
##ishly
crus
crushes
craters
printing
pristine
twitter
##ptial
quoted
Youd
##quiet
peels
disrupt
disinter
heartbreak
##ountable
wrappers
Myth
Stories
Stupid
acorns
desiring
teens
thyn
trell
drownd
pernic
percuss
silvers
Beau
Beeth
##izd
##izen
carol
##rene
wombs
shouldering
opiate
passer
##ancers
##ancial
Chill
Chipp
empath
##oyant
##ivan
##ivious
warns
belovd
##angement
adverse
motherland
reddish
##behind
##ogist
##ogies
minding
singly
clearest
greenhouse
##phus
##ixir
hoc
guid
Shade
Shows
Shaking
Isis
forearm
forecast
resounding
pasted
elim
##shit
girt
hardness
untamed
untouch
mariners
##ictive
distilled
steered
pho
##closed
retrospect
flowd
wobbling
askd
Herr
Herc
burge
burrs
impose
impious
impotent
starless
starvation
purr
##undant
artillery
##occup
compel
compounded
softening
midwife
subj
subside
wilds
yearly
realist
realism
realization
meters
Spart
Spider
Rele
refin
refind
reform
inde
indel
intens
intently
##ipsy
startles
##ricious
edible
prayr
Armes
bestows
reprieve
selfs
idleness
thrones
##ymore
momentum
presum
presumed
presidents
election
trio
erring
interf
intermin
transit
Brun
corr
corrug
discussing
patted
##aho
##ccer
throes
##astery
##oosevel
furl
furies
incur
quietness
##prom
solved
besee
Doll
Clasp
bleachers
bodiless
easie
easiest
misted
witless
depicted
deprived
picker
picket
##asked
##asket
entangle
entitled
grazed
forgetful
suppressed
devised
devoid
promont
immort
deluge
boxer
Plus
Plains
birthplace
tenants
Scor
Grad
killers
Canyon
secretary
radios
Martha
Adieu
viewing
ironed
doubting
##ropolitan
destind
shortest
Throughout
sickened
troubling
storming
Didst
turret
constit
constitution
cellular
##amma
antic
stroking
strolled
banjo
propeller
proputty
hatching
sharpening
falters
Glen
violate
maist
messy
##blind
uranium
##ospher
enterd
doubtless
##ologies
medi
ledger
legions
revis
breezy
queasy
Goethe
profusion
ordain
ordained
portent
Proclaim
Proser
pulsed
pulpit
dullness
irises
Quoth
classmates
seeded
Sunset
Phys
counters
pineapple
embark
dissip
balcon
unsuccess
crackles
stuffing
forwards
Carrying
##ermaid
Idol
numbness
Telling
mutton
billboard
billboards
telephones
excav
excrement
excerpt
##loves
quartered
cabs
valent
expressing
Complete
possessd
drunkard
magnifying
status
statements
hedger
morsel
morose
morphine
scorning
##eteries
declaring
despairing
nettle
astrol
Loving
tickled
Silently
encrusted
Belinda
southward
Drum
Drunk
dispose
provoke
provides
Roots
bulge
Geof
inclination
glimmers
Guards
obscurity
tracking
females
hesitation
Months
Barry
##arship
Brenda
hospitable
accepting
dismayed
facets
##aurus
plateau
imperative
protects
perfet
Delph
Teeth
communication
bidi
difficulties
symp
##borough
exceeds
identified
Precious
Knows
##riters
##ORE
laboratory
whirr
##rosial
unpaid
candlelight
dangled
drummer
drummed
substitute
phantasm
honorable
sediment
writhes
buzzard
Evvy
ratio
Contempl
issuing
##ifferent
cartil
maternal
Resp
insisting
sustains
homesick
energies
mythic
Police
psyche
chalked
##ulsions
improbable
chemist
1966
talisman
wooin
Philome
fainted
Depression
Security
##door
Russians
##ANT
pantry
wretchedness
beliefs
Curse
Keeper
applaud
2000
##ATH
mercies
Magdal
Saturdays
Surv
Surpr
creepy
Confederate
jerked
Medici
puzzles
ensue
##arfrost
Franklin
Terrible
prowl
Hallow
gusty
forsook
narratives
chickade
Arabian
healer
cruell
Melancholy
inexhaust
critical
customers
Forty
clamorous
lidded
statesman
Castle
Distant
scripture
screws
jungles
Capitol
cafeter
rendering
apprehension
management
Incre
Syria
pelicans
automobile
intensely
cadaver
bunched
nostril
unsteady
scanned
quivered
prospects
repentance
submarine
conqueror
Armies
errand
Austria
albatross
Finding
papa
alternating
adjusted
mattresses
conspire
Floating
harbors
vigilance
bastards
compassionate
nightingales
Holiday
##ACK
##ishtim
mangoes
sketched
##OOD
Intell
dedicated
Starting
nibbling
contending
discussed
magnificence
wilting
Macbeth
fiends
monotone
orchestr
girlfriends
frankly
snarl
freshened
parson
hallowd
##oshima
cripple
Soule
shackles
Dropping
Trojan
Zeal
racial
Elsewhere
contradict
Utnap
fissure
stomping
almonds
cultivated
stifling
scientist
Chapter
catalog
cursive
Vietnamese
Protest
vistas
ruptured
unblest
diagrams
Zeno
##iciency
crocuses
Sylph
fuzzy
wartime
sugared
resurrected
dynamite
Titanic
outdoor
hypnotic
executioner
pestilence
sizzle
Cherubim
Tongues
fierie
gibber
economic
palsy
flinch
truest
Isaac
resentment
gouged
phenomenon
adopted
Planet
Fanelli
Firmament
Hitler
Pictures
attentive
Concord
camouflaged
bayonets
thimble
seawater
arbitrary
enlighten
Myrtle
guarantee
hydrogen
nomad
rancid
enigma
biology
teacup
candidate
petticoats
Valentine
geraniums
Arabs
Jenny
Picasso
Russell
staunch
tributaries
dimpled
trinkets
Eevning
Phyllis
moustache
Scarlett
recyc
Alfred
chrysanthemums
Vegas
zenith
disconnect
Meantime
Antarctica
Antonio
unnecessary
calligraphy
droplets
assuage
ugliness
promenade
Carthage
guttural
Raphael
Rochester
Sinai
kestrel
##otofotof
reindeer
carapace
Chopin
dauntless
journals
bougainvillea
Elephant
Gertrude
hibiscus
asshole
prehistoric
Society
binoculars
Pablo
tarmac
pantomime
Eileen
Spleen
stucco
pernicious
Beethoven
Utnapishtim
75
Aye
Bro
Bun
Bears
Bower
Bene
Bones
Bah
Brent
Baker
Border
Broke
Cost
Cord
Cup
Crest
Crab
Dur
Dall
Dian
Dru
Dora
DNA
Ech
Ess
Eze
Esp
Eury
Econ
Eucl
Fu
FL
Fact
Filling
Ga
Gon
Gets
Gently
Greg
Ginger
Hab
Hag
Hug
Haven
Hamps
Jade
Kay
Kam
Kil
Kew
Ling
Lon
Lap
Lines
Loved
Labor
MO
Map
Mort
Melt
Moved
Marsh
Mourn
Mermaid
Net
Nell
OH
Oper
Pi
Pind
Paint
PLE
Piper
Rat
Rage
Raw
Rapt
RACH
Roosevel
Sher
Sight
Sap
Slight
Sett
Scepter
Tight
Tak
Upper
Vast
Vig
WOR
WIT
Yonder
Zep
aire
ads
aper
akin
aria
bic
bart
bile
bane
baker
bumble
baa
cath
cope
caper
caca
cowered
cusp
dong
dour
dimes
dating
duff
dashes
doused
duration
dairy
eard
fad
fus
fang
gat
gambling
hic
hike
hinds
hinged
hís
iamb
kits
kimon
lymph
looping
mie
mailed
mulch
nub
nae
nudes
oint
pitt
piñ
romp
rumin
sar
sind
sowing
tiers
tux
tags
tinged
tainted
vie
vats
vouts
witt
wards
##may
##making
##dice
##dlers
##aired
##bad
##bted
##belly
##rition
##nows
##nics
##grap
##she
##tling
##taking
##uence
##cke
##cont
##fs
##wes
##wright
##waiting
##Among
##After
##zel
##LD
##vie
##Sw
##Br
##xy
##Would
##Night
##jud
##KE
##Per
##PER
##RI
##Yes
##ánder
##16
##9th
##UE
##UM
##äy
theology
##ndes
##atl
##atz
##esome
##esium
##ario
##orama
##onance
##anç
##anies
tha
thawed
tox
tolled
inly
##omm
##leted
##lde
##acus
##acled
stal
stank
styl
##adine
##adoes
beers
beets
beached
##iri
##iris
onset
ongoing
##steps
##along
whin
##urers
liar
##idem
hex
hems
##amis
forc
forcd
hag
ashy
frond
meed
##cends
reven
##ilful
##ilized
searing
sewed
sections
seyde
herons
hisses
anarch
##rof
##unate
deities
dexter
blisters
spak
spontaneous
##riff
##apery
soars
soccer
orth
chili
chuckle
loqu
looted
losers
##esthet
##arding
dooms
flan
flops
##iev
##uli
##ulu
##ulses
shews
outcome
outright
unwe
unman
unopened
unstoppable
clapped
clicked
clindor
alc
alf
plact
brands
##abe
##athy
##igible
##ignty
grants
Ing
suet
swooping
switching
##outhe
trills
tracked
trudge
##aug
abr
conn
mocc
##itect
##few
scint
scowl
scutt
##orned
ammon
comics
##ilda
artery
aromatic
agate
agreement
downy
goe
gobble
glib
slacks
slob
greased
lightbul
cog
ski
skating
cram
prong
pruned
pruning
brewing
##uder
##udged
twee
enn
againe
##berto
longings
##nesses
Weather
straying
imbr
imbec
peg
peony
disarm
disfigured
offshore
darksome
olden
wringing
provd
progen
Stru
teap
teats
afterthought
snip
snugg
##osts
##ostic
##ewa
endangered
drool
drilling
perches
Beating
Bending
##ubar
carou
##plain
##plings
##awks
Changing
eman
Nova
menu
warnd
belovèd
append
appalled
appalling
veld
skys
Frances
motherfuck
teller
redder
redwood
##ielding
mindful
##gettable
firelight
blooded
bloodshot
begat
contracted
##appd
curst
workings
workmen
humped
norm
welling
dribble
Whereat
readily
Attend
keepers
Shame
shading
recited
broc
coloss
deepen
crem
creeds
creaked
secular
secured
##asha
marge
marijuana
woodlands
##close
##clamation
sumac
mused
Albeit
putty
burr
brighten
##ocy
##ocles
compet
godlike
commemor
expel
exposure
rockets
growl
Spani
Reign
Rebell
refers
finale
induced
joyless
invading
##version
institution
tongu
##alties
##bras
edition
editor
miner
attest
attraction
##ymoon
lineaments
preserving
cornfield
decap
decays
parag
parcel
tripping
##swith
##swept
crossd
footprint
signing
transfig
corps
confind
##ahu
Afraid
sightless
apes
squawk
limous
limber
assent
assuming
rolld
merges
merging
merriment
tinny
Clift
Closed
Closer
19th
Meg
bleat
tablet
silverware
pickle
pickled
divin
divisions
thickened
browns
consumes
##velops
widely
##flow
smok
personally
ballast
pathless
Amsterdam
##annas
##olla
##nsylvania
splay
splattered
undressing
litel
mural
leafed
Pluck
Plenty
winging
Scorn
fasting
Grim
Granny
honourable
##uddling
craz
misn
miscar
choicest
scramble
Adri
ironing
##rophes
delighting
penned
##alds
surfaced
factor
harms
harrow
worthier
##aspora
extract
##obiles
##ographed
tallow
lotion
equil
hops
blankness
Conn
sprays
auto
moder
wayside
sinned
sinuous
sharpest
crowning
odours
odorous
listener
##liament
maize
##ucted
##bleness
pretense
fixes
porcup
spotlight
salve
legless
specious
queue
approxim
##paragus
Nighting
irons
servd
Swall
weekly
addiction
Quarter
seasonal
favors
sorrel
unbound
shirtless
counsels
ignite
embodied
tuna
bandaged
digest
digested
unsung
freedoms
replen
lusts
lustful
Ident
tailor
bottomless
Sweeter
billiard
basis
basically
mata
unwinding
quarrels
beholding
Sergeant
abandoning
experts
divinely
paunch
morbid
Hobb
declined
declares
Haroun
Harbor
##rifice
respite
##ennor
recognizes
panels
pitied
calib
calico
crooning
beeh
rabble
rabbi
combing
timed
annivers
Mission
stiffen
flickered
vacu
supernatural
superfluous
milder
mildly
suitors
femur
discovering
Monroe
camping
hemp
hemmed
188
18th
Breaks
pretends
rebels
##fathers
##ethey
pilots
eventual
fetid
railings
tombstone
locket
steamer
necessities
Chev
Cheap
grizz
halved
planetary
Delaware
Speech
displacement
Text
delivering
counterfeit
foxglove
judging
inspiring
treasured
inhuman
sufferd
titled
Appal
cluttered
tapering
processes
tottering
uneas
unearthed
Romeo
shimm
Greenland
Jealous
engineer
engineers
velocity
organize
scrapes
Deeper
implied
harvested
latitude
Presence
Opened
Fairy
Passed
Passions
padding
habitat
rigged
Coral
Salutations
##ribd
inwardly
Midwest
holiest
Conscience
companies
Anti
baton
citadel
Minne
grouse
primeval
wrinkling
Hardy
##hensive
patchwork
Patri
Patrick
arrowhead
somers
mouldering
Memorial
Regions
rimmed
1968
Single
##rigue
eagerly
Burnt
Bursting
umbil
inventing
renews
deserving
Curious
thrusting
Mornings
Suspended
Genius
mercur
unlucky
unexpl
buffet
outlast
acquainted
maidenhead
ranges
surreal
lambent
elegance
Milan
cannibal
##marked
##accato
gangster
Miracle
colourd
summoning
awkwardness
Element
execute
complexion
disturbance
jetty
explosive
whimper
cemeteries
wantonness
cunningly
alphab
plunges
##escapable
sprinkling
dashboard
spurred
1981
pelican
Praying
Romance
rejects
unstable
decorated
Easily
undertake
sincerity
submiss
fugue
albums
albino
Auntie
disciples
papery
unchanged
alternative
booths
patriotic
inscription
##aucas
coupled
Followed
Julia
aeropl
ramparts
docile
codes
tassel
topple
toppling
nimbus
territorial
sidelong
obliged
##istinguishable
Raymond
macar
nibbled
wilted
##ICE
befell
Princes
wakd
privileged
cafés
worshippers
gyps
favourite
dependent
chatting
hydra
Destiny
reservoir
mockingbird
policemen
dwarfs
overwhelmed
trotting
baptized
extinguish
enlarged
radiator
Hunting
airplanes
Chapel
maggot
dodge
glamorous
quotidian
dwindled
bawling
salesman
inquire
convenience
vocation
levee
##osaurs
humiliated
Mercury
leftovers
wheeze
apparatus
involve
smothering
incorpor
mermaids
ellips
##OST
cocaine
shingle
obliterate
##ALLY
persever
snowflake
discerned
incomprehensible
glutton
Seventh
viciss
Universal
minstrels
discordant
raisins
Occasion
reptile
glorified
prescribed
sunbeam
surpassing
impossibly
turbulence
Gathering
Answer
Paso
Saigon
mazy
nitrogen
blasphe
aspirin
##iiiiiiiiiiiiiiii
Carpenter
Sophia
thimbles
anemones
Defeat
activities
category
epiphany
ONE
kernel
monsoon
masonry
interstate
suffocating
psychiatrist
Gordon
Governor
Ithaca
exultation
antiquity
volunteer
masquerade
benevolent
hamburger
indignation
JOE
graceless
boulevard
Katie
rickety
##growth
resource
Turkish
Worship
chalice
crunching
accuracy
Testament
cauldron
florist
convex
schedule
irrigation
fundamental
Difficult
bakery
unforeseen
schooly
effigy
conspiracy
arthritic
Cedar
Niagara
Wynter
gondola
quintess
Leviathan
combustion
Porphyro
Joshua
auburn
##utenant
fleshed
obdurate
archipelago
vertebrae
Circe
eccentric
uninterrupted
grappling
Socrates
saturated
Scamánder
unfaithful
derelict
smouldering
Brutus
Independence
cymbals
fidelity
marvellous
machete
sanguine
toilets
hemorrh
frenzied
intermittent
surveillance
Dagonet
fuchsia
lukewarm
Chippewa
indecent
balconies
Hampshire
PLEAS
RACHEL
Roosevelt
moccas
38
Aege
Bing
Bind
Bast
Bak
Bib
Banks
Cu
CL
CO
Cel
Cod
Cous
Cred
Cried
Carn
Cinc
Chest
Caucas
Dirt
Esc
Fires
GO
Gud
Gaza
Gugoo
Gunga
Hu
Hos
Harp
Hyp
Hinds
Haul
Hangs
Ili
Jenn
Kal
Kim
Las
Lem
Liv
Lob
Luz
Lodge
Ms
Mit
Mut
Mack
Mie
Mason
Match
Marks
MAR
Nam
Nav
Natural
Ninth
Nathan
Narcissus
Nixon
Obed
PO
Pack
Pump
Pomp
Potent
Penthe
Rice
Rough
Rats
Ripp
Rio
Rabb
Sib
Syn
Sara
Ts
TR
Til
Tang
Tuc
Tiber
Touched
UN
Ung
Useless
Vice
Viv
Wom
Wag
Wils
Wives
Zennor
ara
aure
apl
arias
bau
bias
cumb
cereal
dere
dile
dads
easter
gill
gav
giver
gases
homing
hoses
jigs
jowls
ka
kan
lary
mish
mined
mares
muzz
nig
nugg
namd
nicht
os
osp
ode
oasis
ostrich
ozone
pav
rhe
rer
racked
sic
sowed
session
sainted
tet
tard
tits
tines
tanger
tonic
taunts
tête
vs
vect
vial
vests
vii
wif
wily
wagg
yer
yuc
zest
##mets
##did
##del
##iances
##lid
##lime
##bd
##bri
##bang
##bud
##bons
##bug
##bands
##oire
##py
##power
##pipe
##rong
##rone
##got
##gay
##gencies
##tre
##hog
##uent
##uance
##cen
##cos
##calls
##fronts
##winds
##zi
##zar
##yred
##TURE
##kid
##CK
##Con
##Could
##Say
##Well
##EF
##jamin
##2O
##20
##10
##19
##ín
##ès
##hearse
##inus
##inty
##erts
##erting
##erations
##oura
##ouches
##reth
##aton
##aran
##arcer
##orters
##once
##llo
tock
toads
tolling
##isco
##itied
inad
inching
inanimate
##asher
##omers
##otine
##etah
##uters
##acty
##acirc
ston
stork
stuttering
staccato
##irming
##stem
##stock
##storms
##alysis
whines
##urrection
item
heare
##aman
myn
forage
forfeit
##imented
##illac
shatters
fris
frol
frock
framing
fraction
rehab
rehearse
##ilitude
seizes
weasel
##chool
ana
##rofoam
##orent
defl
develops
spi
spid
sphin
##apper
aller
allotted
sopr
soaks
chry
chival
chafe
##anto
##antes
leer
leaky
doon
dose
flicks
##akable
##rait
upand
knave
buttered
outli
outta
uny
unper
unint
unrolled
##istent
cla
clair
clog
clashing
##olin
pliers
plaque
##avings
brac
branched
##abi
##abled
##above
##abond
roamed
roset
##athon
sae
sags
##agn
##agros
swart
swath
swig
swagger
pox
trid
##nthe
user
usher
moa
moll
fees
scolds
ampers
amends
exulting
comets
comments
comforter
smears
arche
arroy
arcing
##osexual
gland
slat
slumb
Wheels
lightened
backseat
overboard
##osse
##ittish
cobbles
cobbled
##ishops
prune
##udges
twe
twill
enm
encycloped
Weigh
quills
##quest
awed
Forms
pecked
disk
disse
disent
heartless
heartbeats
heartbreaking
undergo
Theyve
proced
procure
prohib
##omethe
Asking
designd
justified
##issing
snack
snag
snort
whitewashed
treats
Shep
##lson
blacked
peripher
silo
lettered
##perd
##izo
##izers
##izations
carven
carrier
newer
opium
##ancd
Chim
Chains
Chlo
email
emblems
Noble
warbles
belated
application
##unging
##ggled
waif
waists
wafted
adept
adobe
partition
##rowave
##ogne
heavns
contour
contrapt
hearths
sweetened
standards
curbs
curlic
sawst
hoarded
hoarfrost
dribbles
drivn
Whereon
Wherewith
bedspread
guinea
Shy
Shim
Shun
Shone
Isles
recurs
recites
recipe
recesses
resides
restlessly
restlessness
elong
elves
deepened
creative
girth
womanly
##inthe
hardens
kinda
##ouded
flopped
steers
##ibrium
retiring
playful
careening
carelessly
Alps
Alras
snowed
burly
purses
monastery
Byz
horribly
compulsion
grasslands
crypt
winced
listing
growls
realities
financial
indolent
barbec
invitations
cutter
tryst
##ricted
diffused
##brand
##braska
infamy
bestial
repairs
accurst
accursed
idling
miners
minuscule
atten
lineage
breakdown
lieu
parab
showd
triangular
shadowless
Unh
signaling
satire
faun
transforms
Brid
Branches
joked
discretion
reliable
confine
Legs
Needs
Neighb
Nebraska
Afternoon
squire
squandered
assumes
traverse
traitors
incapable
incarcer
sites
situations
genoc
genetic
helpful
##unked
bese
granddaughter
merged
hangers
hangover
uncons
Claim
Mead
gravely
blending
collabor
collateral
dryer
chariots
yeast
Flour
mistrust
deport
divination
thicken
wrongly
suppli
wishful
peacefully
insidious
shoves
milked
ballroom
##annie
imminent
leaflets
dimness
Places
Plants
explicit
birthright
##welling
Scream
straits
honk
topography
Perf
viewer
verand
roofless
labels
doubling
destitute
sickening
blessèd
kingf
Donna
concoct
palis
bullshit
equivalent
turban
##pecting
autobiography
##Thus
##Those
gunned
propose
proposed
prophetic
Promethe
plaine
hatched
millet
sharpens
detained
##iliation
##ilians
bookshelf
##archs
odes
tightening
##uctions
nested
pinches
##blaz
porridge
urns
sensing
legis
breeches
##atorial
approval
oppressed
portions
damsel
Pros
sexually
capillaries
avails
avarice
raged
demise
Wouldst
Swan
Swiss
Smiling
ridic
protr
Quaker
unbounded
unbutt
banker
pinec
ignoring
##conc
honeycomb
balust
unsay
horny
brag
braved
bravest
spinach
Carved
Descend
requis
requiring
telegram
excurs
punching
matamore
unwind
exhale
exhilar
valour
producing
victories
lapel
possesses
magnitude
magnify
##ractable
Feast
pourd
rhod
Harvey
epau
ravage
battlements
lyes
thirsting
croon
crock
bordering
convol
timing
announcing
wanderers
surroundings
Drown
tangible
woeful
testimony
##iotic
conceald
Couldn
Redeem
towerd
suckling
hesitant
discoveries
Maryland
purposeful
steeped
steeples
Calvary
tentacles
impervious
tombstones
cloven
thumbnail
destroyd
protecting
mutely
masking
Madison
Speed
gnat
revolve
revolves
fistful
kidneys
stocked
fashionable
cheerless
ripens
spectre
spectators
inflame
inhaled
inhaling
liberation
sufferings
Grande
pierces
Appe
cultures
Walks
derived
tortures
tortillas
Venetian
preferring
consideration
tunneled
sprayed
effective
implicit
increases
cookie
pianist
rippled
paddock
Buick
shyness
writhe
##evish
rigour
Corrupt
Corpor
martini
Imagining
Imagination
stemmed
citron
appeer
microwave
tourn
governments
cradling
scornd
Getting
aspens
aspiration
##igris
Acts
Britann
somn
carnation
Region
disdains
1960
wooed
abstracted
predators
multiplies
artistic
Fallen
sneaking
bomber
wrecking
Century
senate
throngs
Mighty
Nearer
Nearby
Skies
Skull
unloved
Parthen
hypocr
nicer
lazily
tummy
battling
soapy
Moment
1955
Benjamin
suicides
surgeons
stubbornness
Milagros
suspend
spaceship
astonish
thresholds
intends
demonstrate
dumpster
instructs
ooh
inexorable
1976
1974
sniffed
employment
##ocratic
Eleven
vestig
jeweler
lucy
ornate
Forgotten
scholarship
concentric
Brah
gazelle
responses
responsive
Cherokee
whimpering
rewarded
interpose
Recall
Architect
Turtle
maintained
dilated
naive
tiresome
Syrian
pelts
pelvis
sewage
sprawls
automobiles
dignified
deemd
ultra
rejection
martyrdom
bunting
whipl
decorate
prompted
Absurd
intrude
orgasm
drugstore
gullies
errands
naughty
developing
barbaric
unfurling
lifetimes
ketch
correctly
responded
Murder
convincing
Montana
Petr
Peters
torsos
meteors
Julie
rasping
chirps
screened
rampant
calendars
Pennsylvania
pirou
pondering
shimmered
migraine
proclaims
frothy
unconqu
Visit
atomic
batteries
preceded
hurricanes
Scotia
reversed
##sofar
shrugs
munching
taboo
necklaces
detective
Tempest
Suffering
gingerbread
snarling
flexing
flexible
icicle
otter
##levant
Destroy
Troilus
uprooted
hollyh
felicity
labyrinths
Sirens
fascinated
stomped
sepia
simpler
illegible
backe
lumbering
Wyoming
muffins
dodging
coaxed
crayons
salesmen
##raptrapt
improvement
Ott
Otto
XVI
kerchief
##uuuu
participate
ornamental
Fifth
resonance
stealthy
ceaselessly
Equal
artifacts
diagn
diagram
Olympus
Winters
spindle
Sylvia
casser
cassette
independence
achievement
hallucination
Methinks
cylinder
ransom
sizzling
arterial
persec
expansion
assignment
incredibly
salvage
scaffolding
fierc
vaults
trifling
Elysium
fervor
housing
truant
wafting
gargoy
storied
Shepherds
eclipsed
Merely
whirlpools
whorl
Murmuring
manufactured
enlightened
dislod
guaranteed
persimmons
corporeal
misunderstood
Crazy
Hiroshima
yelping
convertible
strengthened
Fighting
Owl
Omnipotent
sprightly
enslaved
horde
hordes
jingling
sponges
trample
colleague
millennia
benevolence
Kyoto
awning
maxim
sarcoph
thwarted
coincidence
Enemy
Gauge
Geneva
Maugie
nocturnal
Soviet
Heroic
bargains
improvised
Gazelles
Nymphs
sovran
viscous
Surrounded
transparency
SOUL
façade
Amazon
Abandoned
undisturbed
travellers
Dwight
Violet
handshake
Anthony
indefin
unburied
ingredients
Mysterious
adjectives
parachute
nurtured
synchron
pamphlets
Tibet
Tiresias
mouthing
lexicon
desiccated
streetlamps
yesterdays
uncomfortable
Shirley
illiterate
accommodate
Lycidas
Ancestors
certificate
pneumonia
irresistible
sequestered
unawares
canvases
metronome
Memphis
forsooth
poesy
arithmetic
bittersweet
unknowable
unwieldy
Pleiades
conflagration
bacteria
cobblestones
Cathedral
Euphrates
Sugar
##Until
ungainly
phoenix
Hercules
interminable
cartilage
inexhaustible
cafeteria
Ezek
aperture
ammonia
carousel
colossal
equilibrium
Aegean
Pentheus
Tucson
Chloe
Alraschid
36
33
37
3rd
58
54
Aston
Bru
Belt
Barr
Baths
Cic
Cem
Cable
Caut
Camb
Cec
Ded
Dow
Dod
Dress
Dix
EL
Ears
Ens
Eisen
Fain
Fel
Fant
Furn
Fills
Facing
Flem
Fidel
Flanders
Gain
Gaze
Gothic
Hiding
Hait
HER
Jr
Jons
Jugg
Kl
Ker
Kate
Kab
Krist
Kai
Katherine
Lur
Lith
Lang
Log
Lamp
Lawn
Lands
LOVE
MY
Mall
Mak
Mate
Mour
Mult
Mathe
Nk
Nope
Navy
NIGHT
Own
Osc
Page
Patt
Pover
PAT
Pyram
Plym
Quit
Rac
Rings
Rud
Raf
Roc
Rider
Rights
SC
Sore
Sie
Sear
Saf
Sah
Sought
Siber
Sailing
TW
Tel
Tub
Tax
Tiny
TIME
UP
Vest
Vienna
Wre
Wan
Wol
Wish
Wanted
Wander
Zodiac
ae
ak
avenge
bop
cuck
cures
caved
cairn
dó
dore
dans
dens
dower
doun
dah
ej
eate
eared
fables
fops
firs
fowls
gag
gable
huff
hye
hibern
joo
jaded
jumbled
jangling
jaund
kat
kine
kinet
louds
lousy
ms
nooks
nuzz
narc
ome
pence
pats
pales
panted
pagan
rots
ruse
rinds
sd
sitt
sifts
tad
tir
tion
tout
tacks
va
vou
vat
vot
vents
vials
wher
wench
wuz
zoom
ça
##mist
##mite
##mage
##mits
##mont
##dery
##draw
##driver
##ibs
##aise
##lav
##oin
##pies
##pile
##pret
##rr
##rill
##rand
##rase
##rains
##nx
##nke
##name
##nik
##gum
##gne
##gues
##green
##sk
##ten
##tow
##thed
##tale
##hower
##hots
##holic
##uid
##uition
##count
##fu
##first
##faced
##wide
##wick
##words
##woven
##Am
##AB
##AIN
##TY
##Love
##kus
##vae
##Sp
##Sho
##See
##Bet
##BER
##GH
##xit
##ND
##VI
##ZZ
##Re
##RA
##Red
##YRS
##Under
##hess
##herence
##inning
##inian
##ourie
##ref
##rez
##atar
##atry
##atting
##eda
##arth
##aros
##orient
##orged
##onne
##lle
##eno
##enas
##enching
##enne
##enium
thre
thudding
toen
toot
##isance
##ité
##iton
##itives
inve
inters
inked
inmate
inlaid
inadequ
inescapable
##asks
##omi
##ombed
##ombb
##letoe
##otches
stu
stig
stile
steth
stipp
stables
stacking
##adh
##adays
##adors
beacons
online
##stre
##strokes
##alc
##alom
##aline
whome
whichever
##urred
livest
Thetis
withal
##imag
##imeters
##entially
shold
hae
haph
hailst
assemble
asparagus
frills
frothing
mew
meandering
##ceive
reper
rearing
Androm
Andalus
##alld
weel
##chw
##chairs
notorious
ante
anne
##role
##rogy
deploy
##those
blaring
blushed
blanched
spying
spaced
spares
spiced
sputtering
spangles
spasms
sputtered
##rio
allot
allied
alluring
soone
nec
##usks
likelihood
chute
churned
churns
##astes
##ela
##eland
##elab
##rour
##roust
loading
##antuan
Thor
Thirst
Thief
Throwing
##esthes
lea
leeches
doings
doff
flop
flanked
##aku
##ieces
##raz
##ulah
uphold
uptown
kno
knif
##arted
##emis
##ppe
una
unutter
unobs
##istration
clank
clogs
clasps
Whiles
plo
plied
plagues
bric
briny
brooch
##ateur
##ifa
##iferous
roe
roy
roaches
canter
canine
canker
##agram
##oping
##open
##opot
thereto
manger
manager
sunder
swathed
swerved
switches
swooped
poignant
aber
abused
conject
##itee
fey
fevers
scow
scal
scand
scoops
scouring
scrup
amor
wheres
whereabouts
comin
##ilding
arises
agape
agency
agitated
##angible
slos
slums
Wheat
watcher
watchers
backpack
overmuch
loveless
##ipts
coars
coined
skates
skirted
skittish
##isha
crut
cringe
cranium
crinkled
prate
pricks
prancing
twining
twirls
twittering
enz
enqu
bole
##berts
Weight
Weeping
quas
quits
quince
quaff
lookin
##quila
Forward
strays
stills
stillborn
imple
peed
peeking
peevish
hasnt
disfig
earning
earring
foots
Straw
Stead
acrob
##ensils
##ometers
##othouse
Ashes
Assemb
headaches
snagged
childlike
treas
##onde
##onsin
dramas
drapery
perv
perishing
calloused
Soil
Beats
##ksh
##ordinate
opning
##ressd
##ressions
Chart
Chuck
embody
##ivated
warr
appoint
adhere
adoring
##actions
telle
donut
donned
donuts
earthy
redness
redress
redden
reddens
reddening
farre
cheated
chews
mightiest
streaking
minde
openly
fireside
heaviest
sweetens
curry
soundtrack
needn
##phon
roommate
sawed
hob
hobbled
bedded
guer
Shar
Ship
Shines
Shape
Showing
fatherless
foreman
foresee
forefinger
smallpo
friendless
receded
recipes
resumes
wallow
colonies
giraffe
pleads
##intz
hardy
hardship
hardware
marine
maroon
marmal
##screen
distem
woodbine
steams
steaks
steely
##cliff
retires
retreats
mussels
Decl
playd
Alaska
Herb
meanness
burthen
impost
imposed
impulses
sermons
serrated
starling
##unders
##ulties
mony
artich
horrified
compon
mommy
catap
fearfully
godless
godhead
expired
yearnings
Letting
listed
##iently
Spare
Rex
Recess
Reality
evade
refreshing
finches
believers
frets
indoor
barit
##elson
intuit
coursing
invested
instances
helms
helium
##ucid
##altie
clearness
##ricia
edging
eddying
Arrow
repine
thirteenth
minnows
attorn
attracted
attuned
decency
streetcar
para
oboe
trials
erasing
intercept
interchange
intersection
watchman
transfigured
circuits
Brood
corros
jointed
roseate
confines
Neer
smelly
apoc
apothe
april
squall
limes
inciner
incidents
incipient
##uitous
markd
solutions
helplessness
dressd
grandpa
meridian
tinfoil
uncut
uncomp
Cloth
Trick
Means
##quez
languishing
languorous
sentenced
collage
colliding
regulation
Washed
Florent
depra
depicting
coverlet
icebox
wounding
secondary
builder
missions
prizes
larvae
##flo
insanity
shoving
sixteenth
baller
wetness
unden
undiscovered
delusions
diaspora
nonex
Planted
Pluto
wingless
tenant
tenements
##arently
hilly
Scient
Grac
schoolboy
##cession
craze
angular
radius
Peru
scrambling
scrambled
Thyrs
roofed
defied
defying
defaced
default
labeled
##ropic
madhouse
harrowing
petrified
##obic
wearily
##ographers
sacs
straightening
vaine
concord
##lected
turbid
turkeys
garret
photons
antis
tenderest
##Thou
gunpowder
propelled
candies
reasoning
sharpness
calmness
Glim
flatbed
engross
maun
tightened
pinning
pinpr
sticker
stickers
fingerprint
receave
receipts
weakened
approximate
torched
innov
condensed
ordering
portable
portents
massed
measureless
Progress
sexes
Slav
Slave
rooting
fitfully
capitals
duller
irrational
Empt
Emmet
thundercl
electrons
sorcery
unbre
Phot
varieties
sorting
buttery
##cribed
##hetes
Longing
archae
THAT
mutilated
wasteful
cruelest
##beside
consciously
Illino
dangerously
valid
##chery
cowboys
Series
rotating
separating
separately
##guised
paired
morgue
declard
declines
Hara
relev
releases
departs
ravish
familiarity
Sonnet
calmer
designer
##kini
Jesse
Highland
rabbis
ribcage
widens
encased
etch
etching
testicles
disposed
disposition
providing
provision
##azza
##endom
Missing
bulky
##aulted
monthly
milde
matchbox
##iker
stationary
trailers
grainy
cuz
suckle
campa
Baroque
Warri
Beauties
180
pocketed
debating
squeaks
enjoys
probing
Calvin
faceless
trickles
ambass
textures
cloaked
cloaks
affects
##rabble
waxy
copious
pleasantly
leathery
majest
creams
revolutions
Tea
scribe
scribble
flukes
targets
communal
communities
politician
malad
inflated
Mao
threatens
attending
identification
satisfying
Institute
innermost
celebrity
originally
frailty
frailties
Greenwich
Jebus
cooper
routes
logical
deriv
rumour
bombard
dutiful
rapturous
virginal
defended
latitudes
##averns
knotty
Preserve
Clement
allowance
skillful
pumpkins
stupidly
venerable
chainsaw
Corinna
Salute
martyred
upstart
taxis
regretted
faultless
bathes
operating
operations
physically
Minute
Minerv
typical
Compan
Composed
##ova
circumspect
graduate
sustaind
vibrate
Janet
keener
keenly
foolishly
##salis
coffers
infantry
mythical
libraries
Davis
Polar
feebly
scrubbing
loftier
improvis
##ascal
Regret
Regiment
puffing
##EST
exchanging
seventeenth
Buried
nervously
memorials
Prair
clarify
sculptured
thronged
mantis
sodium
treaties
galvan
moldy
anchors
atmospher
permits
ceramic
jawbone
tumor
settlement
Greater
Medic
Mommy
sloped
royalty
Committee
alarming
conjuring
conditioning
cannons
suspense
napalm
diminutive
##sthmus
envie
1970
placd
awkwardly
Annie
Careless
Valle
grapefruit
executive
toasted
Cutting
previously
Bedlam
motorb
beckoned
Damas
Turkey
bribe
definite
definitions
diluted
individuals
##icipal
Circuit
reclined
surrendered
Absence
cypresses
1915
accomplishment
##IDE
conquerors
##points
##volence
ribboned
aqua
Angola
canopies
purchased
responding
withdraws
adjusting
2010
Hyar
Stephen
mesquite
internet
international
harbored
anticipating
precipitous
Hopkins
Limbs
Limbo
vagabond
cyclone
churl
tranquility
##beaten
dolorous
ponderous
Obsc
bounteous
baffling
migrations
schemed
scrawls
subtler
introduce
introduction
protesting
giggled
inevitably
prevented
educated
merchand
Pulling
befriend
##burnt
Almightie
iridescence
welcomes
Crystal
ovens
yoked
reverses
disgusting
orbiting
sincerely
Suffer
annoyed
icons
mammoth
wistfully
accumulated
Ambition
SHALL
lapses
unclouded
Iceland
honeymoon
fossils
indulgent
earthquakes
dwarfed
Kisses
Labour
converge
preachers
assistance
punctured
contradictions
molecular
Fragr
dictator
unusually
Styx
Stygian
redeemed
untransl
scholarly
bachel
scientists
cleansed
cicada
quotation
ceremonies
Dorothy
Traveling
dimensional
Frederick
nostalgic
cursd
BEEF
Civilization
##habited
Spreading
incidental
pedestal
pedestrian
Fifteen
fathomless
podium
punishments
dungeons
Internet
cobweb
Authority
##rocity
performs
##ruffled
Barely
gorged
sequins
spouting
flattery
scolding
prudent
prostitutes
sycamores
Modern
Maiden
rehearsing
rehearsed
seagulls
selected
Thenceforth
expansive
inertia
emphatic
emphasis
intestine
Bottom
##iño
lectures
grenade
grenades
satellites
obliquely
Council
Khan
Oakland
pomegranates
##ILLI
intoxicating
assassin
##zzzzzzzz
dowry
storage
Hannibal
Rouen
immigration
prettier
Picture
Warsaw
biblical
mazes
consummate
consummation
Split
jubilant
chromatic
unsettled
prolonged
foresight
foresaw
cumulus
plentiful
plenteous
interpreter
Groves
Lonely
kernels
sloppy
Convention
toothpaste
hitchh
oatmeal
veteran
veterans
skidding
Shields
##bridled
millennium
rummaging
petticoat
Luther
Monsieur
jostling
pioneer
exaggerated
counterpart
Cosimo
kinship
symptoms
microscope
disintegrating
##15151515
anecdotes
barricade
precincts
philosophical
Higher
scuttle
cocoa
Reverend
diaphrag
Nestor
bungal
##About
atheist
chicory
catacombs
idiom
squalid
provinces
Bhutto
cormorant
robbers
academic
impersonal
Maggie
Techn
lubric
reunion
repetitive
octopus
cinema
throughthe
rewrite
cliché
volley
laundrom
observer
Phillis
Stevens
sweatshirt
Nurse
astride
surplus
bewilderment
frivolous
Google
reread
delegation
Afghanistan
##odendron
Roland
##original
Climbing
unforgettable
reminiscent
cerebral
Dundee
tawdry
exuberant
empathy
selfsame
corrugated
beseeching
Halloween
Protestant
Echoes
cacao
ointment
alcove
##ubarb
porcupine
anniversary
alphabets
hydraul
Cincinn
Wilson
dilem
inadvert
##acircacirc
soprano
unyielding
legisl
requisite
Ezekiel
Poverty
Plymouth
loudspe
Thyrsis
Illinois
1st
2nd
55
5th
Aen
Agg
Aint
BY
Bess
Bod
Bold
Bass
Bond
Base
Bakers
Bacon
BUT
Ches
Cult
Cob
Couch
CON
Ding
Daff
Daughters
Disd
Dizzy
Eric
Escape
FB
Fri
Fie
Fund
Foes
Fug
Fres
Faded
Furies
Folly
Gan
Gand
Gem
Gang
Gull
Gawd
HO
Hous
Hovering
Istan
Jill
Jess
Jung
Lav
Lif
Lull
Lament
Lamps
Mt
Mé
Mage
Mute
Mamm
Mixed
Moore
Mugoo
Nin
Naught
Nelly
Oz
Oed
PL
Pom
Pose
Pile
Pool
Pines
Parn
Pitch
Pipe
Pierce
Puts
Penn
Pressed
Parks
Purg
Polly
Phenomen
Pocket
Proust
Ric
Rand
Range
Sour
Saul
Salem
Signs
Sphin
Tin
Tum
Tread
Tents
Trib
Tigris
Umb
Vib
Vague
Wo
Witt
Wond
Wrap
Wrest
Wisc
Waits
Yang
Yuk
Zone
Zephy
aaa
bers
bif
battering
bounces
cess
cud
culled
dint
dude
ducked
eun
eave
foo
fooling
git
gur
gurn
garr
isthmus
jon
jell
jailed
joust
jumper
koh
lures
lasc
mam
mink
mimes
mudd
mowers
nave
naw
narrows
ou
ounce
pim
pitted
rill
raucous
sated
saps
sallow
samples
tous
traw
tann
taunt
tusk
uter
vans
vern
voting
votive
viii
wile
wret
wicks
wifes
wiry
yaf
##eel
##mpt
##mint
##dn
##iope
##aq
##lust
##lob
##bore
##bars
##bane
##burns
##oble
##oseless
##pun
##pace
##pike
##pipes
##rines
##rator
##ritation
##nies
##gi
##gut
##gans
##gical
##sa
##tas
##till
##two
##hips
##hands
##uve
##uistic
##cion
##cate
##cans
##cape
##chen
##fed
##ffe
##went
##wax
##women
##Ah
##Again
##zan
##ku
##vak
##veth
##vised
##Such
##Has
##Had
##Women
##Never
##jured
##18
##ías
##ées
##änt
##heir
##heim
##eres
##erne
##eridge
##oux
##reve
##reys
##atem
##esp
##arried
##organ
##enseless
androgy
##anus
##anel
##anous
##ania
thres
toed
toga
##itis
##itimate
incend
inherent
##omic
##ghorns
##ghdad
##otics
##etary
##acar
##acan
##acter
stave
studs
##veland
beamed
##irut
##iric
##irms
oncoming
##stall
##stance
##staking
##sthen
##stairs
youto
##alin
##alist
##always
whil
whack
whiles
wharves
##urz
lieth
heals
heater
heirl
heifers
thatched
shir
shoo
shill
shambles
hale
frater
frying
fraying
reaped
seash
wend
ween
weake
weavers
wasAs
##unin
dears
decept
deception
##gend
##geois
blare
bloud
blots
bludge
bluffs
bluster
blunted
spig
spook
spools
spooked
spurned
##riety
allay
soaps
sobbed
oracular
newe
neural
chipping
chubby
chintz
##astas
##elu
lond
lops
lozen
loathed
##estina
leant
leech
dogged
flots
##ieg
##usts
##raised
##odder
bypass
##ulas
##ulking
##ulsed
upgr
upheld
kny
knell
knobs
shearing
##toire
##toons
##topher
outfit
##sso
unab
unfl
ungl
unarmed
untended
unbridled
##ellum
##ellations
client
clipp
clipping
clench
clucking
##olates
plumber
platters
plaus
ploughed
##avage
##abl
##ifice
##atha
##athouse
gras
grained
grades
granting
##opia
thereafter
mann
manure
mania
manne
sundry
sward
swag
swerves
willful
tracts
abed
##inky
##inkles
fend
fender
scoured
scurry
amn
amble
amend
ammun
comings
smut
arre
arising
agitation
##others
downwards
downfall
goin
goon
gobb
slag
slang
slicked
slugs
sledge
backstage
overpass
##osite
##itties
##ittring
nightsh
nightcl
coag
coating
coales
##ulle
skips
skims
crin
crud
prank
pricking
twang
windblown
##ptu
enfl
qué
quotes
awash
awesome
preoccup
Fors
Ones
imitating
peeping
##lessed
disar
offs
heartache
Stare
Stump
Stuffed
acclaim
teal
teak
##ailable
##isson
##issant
remake
snared
snoring
snatches
##eward
##ected
trend
trestle
Shee
Shel
Sheer
Sheep
endow
drow
perd
peruse
perpend
beth
betimes
Beet
Begins
Beulah
Beirut
carb
carves
carmine
airless
airborne
##redict
speke
specks
##kshire
##aways
shouldnt
lastly
##resso
##aryllis
Chron
empl
birthing
birthed
Nobles
walker
##ivocal
warping
warbler
belted
veering
##ggered
##autiful
Frown
adord
adores
##azes
farce
chev
chear
mightie
##bees
##beam
##beard
##beyond
Allow
Allons
Alleg
buoys
cleer
cleaves
Ana
greenery
##ixen
humankind
Wheres
bedde
bedstead
guff
Share
Shaw
Shock
Showed
Shivering
##pec
hairless
shadie
##lighted
recline
##alfa
resumed
##ottle
restord
rainfall
rainstorm
pastry
elation
elixir
##apses
goldfinch
doorstep
plex
pleated
pleaded
untidy
distill
distortion
disturbs
songbird
##ormous
##clothes
retina
flowr
flowrs
mussel
##rups
Season
fuller
gibe
Herald
founder
foundry
##atta
droll
wordes
monolith
articles
##ocol
##ocated
##occo
##ietie
compart
composd
composer
bookstore
catfish
yearns
listning
growling
visor
visibly
realizing
Spoon
Blowing
Requ
believd
freaks
indic
indicated
indigenous
indistinguishable
##mane
memoir
courting
courted
invents
invaded
##elties
cuttle
install
summertime
speakers
helix
differing
infused
Argent
reproof
steppes
minimal
attracts
##ymp
preserv
preserves
decimal
returne
##licts
parades
##ossed
eras
erases
interv
interred
footnote
Unn
signaled
satchel
transist
circa
Brill
corse
bitumen
relatively
confin
##isteria
centrif
Leads
Nev
Yourself
stopt
##ccoli
schooled
garde
apathy
magister
magpies
furze
limped
assim
assaults
baboon
trait
traged
inco
sonne
hurld
markings
kneeled
tincture
Click
Clara
Closing
ladle
##quee
graveyards
bleaching
colloqu
bares
raff
rafts
yee
Flung
Flames
crowing
crowed
melanch
divining
thickness
entombed
consists
consumption
consoled
graven
grazes
##grad
builded
missiles
Twin
wishbone
insou
insolent
ceasing
##incense
thinnest
Amy
##annah
suffocation
Abstr
undoes
undaunted
immensity
deline
dived
diabet
diurnal
##eyn
planter
groped
bearers
Plum
Plunk
Played
wingèd
birthmark
birthdays
tenure
tenuous
##wells
hillock
##mingham
craved
pressd
Canst
unfit
unfast
anguished
radish
Marl
Marian
viewd
hillsides
##strung
defunct
arrivd
penins
pengu
scarcity
Engine
faiths
extracted
fatuous
petrol
##ographer
weighty
##ompan
concuss
Kingdoms
Worms
forevermore
daft
shrilling
Dido
garter
garages
admitting
admires
bagged
Conse
antip
moderate
storefronts
propel
proposition
proportions
Pruss
candor
candelab
detest
potter
potion
Peggy
posthum
odious
##lias
completion
##ypes
pinion
pinpoint
##blue
##block
porth
urgently
strenuous
Enl
spotlights
sensit
sensibility
legible
receiv
dinosaurs
torrid
Gogh
ports
massy
damps
damsels
caprice
capricious
denuded
dulled
irritation
demure
caust
greyhound
services
Swept
Swimming
wheelb
protests
addicted
smoothness
clockwork
hunches
variable
bucking
ignoble
##ylene
dissent
tunic
meaty
tempers
Crick
Crane
unsatisfied
paintbrush
Remove
brawn
owing
rowdy
##joined
Ida
Idaho
Descending
requiem
THYRS
Strat
Sweep
northward
exciting
curtained
purposeless
unwelcome
cabins
valve
produces
affront
volatile
victors
laptop
Commer
Compl
rotation
innocently
statel
statistics
Daylight
rarest
scorne
rhubarb
##oosed
Harold
Harvest
briefcase
estimate
estuary
pigment
reveries
jeer
hamster
laminated
hybrid
Pleased
puke
puppies
widowed
heightened
convulsive
translator
##vethe
announces
provok
multitudinous
conceals
concealing
stiffly
THERE
inclind
Guad
gloaming
obscures
superf
##iku
trackless
basking
importune
Monty
checkered
commandments
radioactive
debauch
foamy
courtiers
succulent
confessions
dismembered
faculty
fleecy
fetish
impert
cloister
protective
halos
copied
Deliber
Delighted
Boat
Boots
Creeping
Doesn
kidding
##helia
tarred
cheerfully
cascade
stubs
judgments
inspires
inspird
Mais
##generate
cloths
excels
mainland
Appear
attendants
solemnly
Babies
Snakes
linnet
##Within
darkend
feasted
Transport
healthful
primed
derive
deranged
mentioning
resistless
temperament
rumored
rumours
guidebook
engineering
tunneling
deceives
spraying
latent
increments
Cleveland
Mercedes
habitual
showering
willingness
skillet
writhed
newsprint
##inox
pillowcase
sacrificial
Repent
custody
Antig
operate
stolid
appeals
issued
##agonist
physicians
courageous
Minister
obeyd
booted
attempted
gauzy
riche
pedigree
limbo
Simone
tempts
Rocky
aspires
##OUR
successive
##sthey
authorities
carnal
vertuous
vertigo
resolvd
##veloped
Muslim
Persia
##noisse
##scribed
1964
1967
benumb
predicted
lurched
lurching
Crossed
##iquity
dealer
sorely
stabs
memorize
inventory
Louie
Parker
lampsh
progression
Genesis
harpoon
clasping
luxuries
##visions
Divide
enclose
enclosing
Palmer
conjug
conjures
1958
1956
supports
Subd
goddesses
occurring
Assume
trimming
boasted
vanishd
obeyed
forsaking
alleyways
gossips
termites
McDon
Treasure
knuckled
slumbering
cruelly
cruelties
reconst
Melissa
Solid
Wedding
attacking
domest
permanence
Eleg
Tribes
vestib
vestments
assembling
Arthurs
revelations
Learned
Hungarian
Samuel
Accom
butchers
teenager
gasped
sprinkler
cashmere
dominoes
spurts
regularly
pelted
Circles
taä
##abbard
Esper
prompts
promptly
bewildering
mosquitos
Setting
thorax
intrinsic
Families
hazards
Eliza
10000
Achille
##maids
comprehension
barbarian
fertility
tanned
adventures
Courts
lumpy
##ASS
Majest
withdrawal
Josey
rivets
patriots
Bowre
Priv
shunned
Floor
anticipate
casualties
vagu
##uvian
Province
Raise
coded
pirates
ruffling
Holocaust
Phoen
pondered
legendary
Obscure
Virtues
funds
sketches
proclaimed
subtract
investigate
rectangular
giggles
excluded
benefits
CHR
Visitors
biography
bikini
espresso
##Before
bristle
intimately
presidential
roug
wilful
theatres
polyester
undersides
Strait
alcoholic
shrugged
loveth
Draws
Wondering
munny
fracture
observations
gingerly
annoyance
newborns
uncommon
fibrous
##Nothing
stammer
unleashed
featured
snatchd
guileless
Superior
Caesars
persuaded
calculating
calculations
Ruby
Thursdays
phosphorous
overwhelm
Ferris
Kissing
racist
vomiting
shatterd
quantities
Helpless
appreciation
constraint
contemn
accompany
Miller
Millions
Shedding
botched
sherbet
chastity
chastened
Styrofoam
impressions
opportunities
Quietly
Hunter
fouled
gulping
nuptial
cleansing
Perfectly
XIV
hubris
muffin
Travel
inspecting
nucleus
leveled
rattlesnake
Bewild
apex
##seeing
harnessed
pedestrians
Baghdad
Naples
molest
pistons
anthrop
scallop
extravagance
Basil
lintel
mathematic
sample
recompence
transfixed
squadrons
launching
pancake
spindly
Greyhound
Aquinas
Ruin
##OLD
bracken
scorpions
augment
mongrel
ascetic
sequel
Forthwith
inconstant
dismissed
Methought
STOP
discerning
Idea
Rogers
baleful
seraphim
economics
WHAT
ethnic
hustle
looke
palsied
fluffy
fervid
unthink
intoxication
usurp
aggreg
Receive
Received
raisin
equipage
episodes
garnet
lynx
winsome
deftly
retreated
Sprung
coroner
Repeat
architectural
eclipses
rearrange
spawning
sunburned
whorls
feigning
attentions
fattened
inseparable
cancelled
scurrying
transferred
mathematical
Trouble
plywood
blistering
chandeliers
impeccable
parlour
Supreme
shanty
unreadable
extremity
encircled
##AAAAAAAA
Nazi
eroded
jingle
amphib
teacups
reminisc
Collected
Lutie
flounder
clambered
congealed
billowy
Galilee
nausea
pixel
yogurt
ingenious
nocturn
reticent
decrepit
symptom
boulevards
anecdote
Cortez
Nineteen
Sicilian
pharmacy
Seraphim
demonstration
##xxxxxxxx
##24242424
Gypsy
##bourg
manuscripts
##ortheast
meticulously
Hoover
goldsmith
marigold
marigolds
Prepare
consecrate
Material
pheasant
##otype
incantation
profusely
Dionysus
dizzying
mundane
contagion
Blossom
scrutiny
Colonel
azaleas
Fowle
Sierras
disordered
disobedience
schooner
specimen
Sweden
Regardless
ceremonial
Jumblies
Tuscan
vouchsafe
zephyrs
##garden
thesis
##alanx
noontide
unadorned
phlegm
confronted
destructive
Experience
urchin
battalions
Duchess
goblet
enshr
prelude
Stretching
belfry
infamous
Immediately
obituary
sylvan
insignific
horseshoe
infinitesimal
obscenity
Harris
Mosquit
Saxon
bisect
blacke
unhinged
unpleasant
querulous
doorknob
syringe
bulwark
Magnificent
Einstein
Haply
Neruda
Pepper
inaudible
stedfast
nobility
untouchable
promontory
enlightenment
Eurydice
Pindar
WITH
anarchist
alfalfa
##outheast
paragraph
Appalach
schoolyard
quintessence
arabes
larynx
rheum
spiky
clairv
archety
arroyo
genocide
suppliant
Parthenon
ketchup
Eisenhower
PATCH
##kusai
##ombbombb
stethoscope
haphazard
crutches
marmalade
Minerva
Vallejo
Istanbul
Sphinx
Wisconsin
THYRSIS
43
40000
52
AC
AR
Action
Ahead
Aught
Bi
Bit
Bere
Bag
Balm
Bored
Bought
Burned
Crou
Cell
Cate
Cage
Cows
Cream
Cance
Cough
Cats
Cash
Celt
Cald
Curs
Comb
Cros
Cancer
Dy
Dul
Due
Dried
Dyn
Denn
Dandel
DAY
Een
Els
Eph
Eug
Ecc
Erect
Fay
Fest
Fling
Fail
Fanc
Fash
Fates
Files
Flet
Finds
Fulf
Faire
Folk
Gest
Gol
Gins
Garn
Goss
Greet
Gaul
Hut
Haz
Hunt
Jason
Ko
Kier
Knot
Khal
Kangaroo
Lin
Lind
Lag
Lip
Liver
Lifted
Lyd
Lilies
Lemon
MN
Mab
Mare
Mail
Muff
Maud
Nu
Nic
Nost
Nash
Nik
Nava
Niño
Olson
Pam
Pand
Pest
[...]
